{
  "version": "1.0",
  "truncation": null,
  "padding": null,
  "added_tokens": [
    {
      "id": 0,
      "content": "[PAD]",
      "single_word": false,
      "lstrip": false,
      "rstrip": false,
      "normalized": false,
      "special": true
    },
    {
      "id": 1,
      "content": "[UNK]",
      "single_word": false,
      "lstrip": false,
      "rstrip": false,
      "normalized": false,
      "special": true
    },
    {
      "id": 2,
      "content": "[CLS]",
      "single_word": false,
      "lstrip": false,
      "rstrip": false,
      "normalized": false,
      "special": true
    },
    {
      "id": 3,
      "content": "[SEP]",
      "single_word": false,
      "lstrip": false,
      "rstrip": false,
      "normalized": false,
      "special": true
    },
    {
      "id": 4,
      "content": "[MASK]",
      "single_word": false,
      "lstrip": false,
      "rstrip": false,
      "normalized": false,
      "special": true
    }
  ],
  "normalizer": {
    "type": "Strip",
    "strip_left": true,
    "strip_right": true
  },
  "pre_tokenizer": {
    "type": "Whitespace"
  },
  "post_processor": {
    "type": "TemplateProcessing",
    "single": [
      {
        "SpecialToken": {
          "id": "[CLS]",
          "type_id": 0
        }
      },
      {
        "Sequence": {
          "id": "A",
          "type_id": 0
        }
      },
      {
        "SpecialToken": {
          "id": "[SEP]",
          "type_id": 0
        }
      }
    ],
    "pair": [
      {
        "SpecialToken": {
          "id": "[CLS]",
          "type_id": 0
        }
      },
      {
        "Sequence": {
          "id": "A",
          "type_id": 0
        }
      },
      {
        "SpecialToken": {
          "id": "[SEP]",
          "type_id": 0
        }
      },
      {
        "Sequence": {
          "id": "B",
          "type_id": 1
        }
      },
      {
        "SpecialToken": {
          "id": "[SEP]",
          "type_id": 1
        }
      }
    ],
    "special_tokens": {
      "[CLS]": {
        "id": "[CLS]",
        "ids": [
          2
        ],
        "tokens": [
          "[CLS]"
        ]
      },
      "[SEP]": {
        "id": "[SEP]",
        "ids": [
          3
        ],
        "tokens": [
          "[SEP]"
        ]
      }
    }
  },
  "decoder": null,
  "model": {
    "type": "BPE",
    "dropout": null,
    "unk_token": "[UNK]",
    "continuing_subword_prefix": null,
    "end_of_word_suffix": null,
    "fuse_unk": false,
    "byte_fallback": false,
    "ignore_merges": false,
    "vocab": {
      "[PAD]": 0,
      "[UNK]": 1,
      "[CLS]": 2,
      "[SEP]": 3,
      "[MASK]": 4,
      "!": 5,
      "\"": 6,
      "#": 7,
      "$": 8,
      "%": 9,
      "&": 10,
      "'": 11,
      "(": 12,
      ")": 13,
      "*": 14,
      "+": 15,
      ",": 16,
      "-": 17,
      ".": 18,
      "/": 19,
      "0": 20,
      "1": 21,
      "2": 22,
      "3": 23,
      "4": 24,
      "5": 25,
      "6": 26,
      "7": 27,
      "8": 28,
      "9": 29,
      ":": 30,
      ";": 31,
      "<": 32,
      "=": 33,
      ">": 34,
      "?": 35,
      "@": 36,
      "A": 37,
      "B": 38,
      "C": 39,
      "D": 40,
      "E": 41,
      "F": 42,
      "G": 43,
      "H": 44,
      "I": 45,
      "J": 46,
      "K": 47,
      "L": 48,
      "M": 49,
      "N": 50,
      "O": 51,
      "P": 52,
      "Q": 53,
      "R": 54,
      "S": 55,
      "T": 56,
      "U": 57,
      "V": 58,
      "W": 59,
      "X": 60,
      "Y": 61,
      "Z": 62,
      "[": 63,
      "\\": 64,
      "]": 65,
      "^": 66,
      "`": 67,
      "a": 68,
      "b": 69,
      "c": 70,
      "d": 71,
      "e": 72,
      "f": 73,
      "g": 74,
      "h": 75,
      "i": 76,
      "j": 77,
      "k": 78,
      "l": 79,
      "m": 80,
      "n": 81,
      "o": 82,
      "p": 83,
      "q": 84,
      "r": 85,
      "s": 86,
      "t": 87,
      "u": 88,
      "v": 89,
      "w": 90,
      "x": 91,
      "y": 92,
      "z": 93,
      "|": 94,
      "~": 95,
      "¡": 96,
      "£": 97,
      "¥": 98,
      "§": 99,
      "°": 100,
      "±": 101,
      "²": 102,
      "³": 103,
      "µ": 104,
      "·": 105,
      "½": 106,
      "Á": 107,
      "Å": 108,
      "Æ": 109,
      "É": 110,
      "Í": 111,
      "Î": 112,
      "Ö": 113,
      "×": 114,
      "Ø": 115,
      "Ú": 116,
      "Ü": 117,
      "Þ": 118,
      "à": 119,
      "á": 120,
      "â": 121,
      "ã": 122,
      "ä": 123,
      "å": 124,
      "ç": 125,
      "è": 126,
      "é": 127,
      "ê": 128,
      "ë": 129,
      "ì": 130,
      "í": 131,
      "î": 132,
      "ñ": 133,
      "ò": 134,
      "ó": 135,
      "ô": 136,
      "ö": 137,
      "ø": 138,
      "ú": 139,
      "û": 140,
      "ü": 141,
      "Ā": 142,
      "ā": 143,
      "ă": 144,
      "ć": 145,
      "č": 146,
      "Đ": 147,
      "đ": 148,
      "ė": 149,
      "ī": 150,
      "Ł": 151,
      "ł": 152,
      "ń": 153,
      "Ō": 154,
      "ō": 155,
      "ś": 156,
      "ş": 157,
      "š": 158,
      "ū": 159,
      "ų": 160,
      "Ż": 161,
      "ž": 162,
      "ơ": 163,
      "ư": 164,
      "ʻ": 165,
      "ʿ": 166,
      "̃": 167,
      "α": 168,
      "β": 169,
      "γ": 170,
      "κ": 171,
      "μ": 172,
      "С": 173,
      "а": 174,
      "в": 175,
      "е": 176,
      "к": 177,
      "о": 178,
      "с": 179,
      "т": 180,
      "я": 181,
      "ا": 182,
      "ح": 183,
      "ص": 184,
      "ل": 185,
      "ن": 186,
      "ه": 187,
      "्": 188,
      "ก": 189,
      "ง": 190,
      "ณ": 191,
      "ต": 192,
      "ม": 193,
      "ย": 194,
      "ร": 195,
      "ล": 196,
      "ั": 197,
      "า": 198,
      "ิ": 199,
      "่": 200,
      "์": 201,
      "გ": 202,
      "დ": 203,
      "ვ": 204,
      "ზ": 205,
      "ი": 206,
      "კ": 207,
      "ო": 208,
      "რ": 209,
      "ს": 210,
      "უ": 211,
      "ც": 212,
      "ძ": 213,
      "წ": 214,
      "ხ": 215,
      "ჯ": 216,
      "჻": 217,
      "ḥ": 218,
      "ṃ": 219,
      "ṅ": 220,
      "ṣ": 221,
      "ṭ": 222,
      "ṯ": 223,
      "ả": 224,
      "ấ": 225,
      "ầ": 226,
      "ắ": 227,
      "ễ": 228,
      "ệ": 229,
      "ị": 230,
      "ớ": 231,
      "ử": 232,
      "ỳ": 233,
      "‑": 234,
      "–": 235,
      "—": 236,
      "‘": 237,
      "’": 238,
      "“": 239,
      "”": 240,
      "„": 241,
      "†": 242,
      "…": 243,
      "′": 244,
      "″": 245,
      "⁄": 246,
      "₤": 247,
      "€": 248,
      "₹": 249,
      "⅓": 250,
      "⅔": 251,
      "→": 252,
      "−": 253,
      "≤": 254,
      "☉": 255,
      "♭": 256,
      "♯": 257,
      "〈": 258,
      "〉": 259,
      "の": 260,
      "ァ": 261,
      "ア": 262,
      "キ": 263,
      "ス": 264,
      "ッ": 265,
      "ト": 266,
      "プ": 267,
      "ュ": 268,
      "リ": 269,
      "ル": 270,
      "ヴ": 271,
      "・": 272,
      "動": 273,
      "場": 274,
      "大": 275,
      "戦": 276,
      "攻": 277,
      "機": 278,
      "殻": 279,
      "火": 280,
      "礮": 281,
      "空": 282,
      "隊": 283,
      "﻿": 284,
      "～": 285,
      "th": 286,
      "in": 287,
      "the": 288,
      "an": 289,
      "er": 290,
      "on": 291,
      "ed": 292,
      "re": 293,
      "at": 294,
      "or": 295,
      "en": 296,
      "st": 297,
      "al": 298,
      "ar": 299,
      "of": 300,
      "and": 301,
      "as": 302,
      "is": 303,
      "to": 304,
      "es": 305,
      "ing": 306,
      "it": 307,
      "ou": 308,
      "ic": 309,
      "ion": 310,
      "he": 311,
      "ro": 312,
      "le": 313,
      "ent": 314,
      "ac": 315,
      "il": 316,
      "se": 317,
      "ad": 318,
      "am": 319,
      "om": 320,
      "be": 321,
      "ly": 322,
      "was": 323,
      "for": 324,
      "ch": 325,
      "ur": 326,
      "ve": 327,
      "de": 328,
      "The": 329,
      "ir": 330,
      "ol": 331,
      "-@": 332,
      "@-@": 333,
      "im": 334,
      "wh": 335,
      "ver": 336,
      "ow": 337,
      "ig": 338,
      "wi": 339,
      "ter": 340,
      "ay": 341,
      "un": 342,
      "ce": 343,
      "that": 344,
      "with": 345,
      "con": 346,
      "ation": 347,
      "ct": 348,
      "ag": 349,
      "by": 350,
      "te": 351,
      "id": 352,
      "us": 353,
      "ot": 354,
      "ri": 355,
      "ul": 356,
      "el": 357,
      "19": 358,
      "ap": 359,
      "res": 360,
      "ere": 361,
      "ain": 362,
      "rom": 363,
      "com": 364,
      "et": 365,
      "op": 366,
      "pl": 367,
      "his": 368,
      "00": 369,
      "oun": 370,
      "ut": 371,
      "su": 372,
      "all": 373,
      "mo": 374,
      "ab": 375,
      "are": 376,
      "ers": 377,
      "um": 378,
      "ther": 379,
      "from": 380,
      "li": 381,
      "pro": 382,
      "pe": 383,
      "di": 384,
      "In": 385,
      "ne": 386,
      "sh": 387,
      "cl": 388,
      "tr": 389,
      "ate": 390,
      "art": 391,
      "po": 392,
      "were": 393,
      "em": 394,
      "ong": 395,
      "igh": 396,
      "ex": 397,
      "est": 398,
      "ies": 399,
      "ld": 400,
      "si": 401,
      "ich": 402,
      "so": 403,
      "ill": 404,
      "ak": 405,
      "ast": 406,
      "ish": 407,
      "gh": 408,
      "ard": 409,
      "ber": 410,
      "ame": 411,
      "lo": 412,
      "ort": 413,
      "od": 414,
      "ated": 415,
      "ity": 416,
      "ant": 417,
      "out": 418,
      "per": 419,
      "ment": 420,
      "fe": 421,
      "man": 422,
      "had": 423,
      "qu": 424,
      "ear": 425,
      "vi": 426,
      "one": 427,
      "tw": 428,
      "ess": 429,
      "end": 430,
      "ist": 431,
      "ough": 432,
      "ack": 433,
      "which": 434,
      "over": 435,
      "ord": 436,
      "our": 437,
      "ha": 438,
      "not": 439,
      "af": 440,
      "ound": 441,
      "but": 442,
      "ge": 443,
      "str": 444,
      "ive": 445,
      "rit": 446,
      "ally": 447,
      "ine": 448,
      "gr": 449,
      "its": 450,
      "act": 451,
      "ci": 452,
      "ight": 453,
      "fir": 454,
      "her": 455,
      "200": 456,
      "ary": 457,
      "Ch": 458,
      "ud": 459,
      "own": 460,
      "ved": 461,
      "du": 462,
      "pr": 463,
      "20": 464,
      "av": 465,
      "their": 466,
      "port": 467,
      "up": 468,
      "land": 469,
      "ip": 470,
      "ew": 471,
      "ian": 472,
      "ous": 473,
      "ore": 474,
      "first": 475,
      "der": 476,
      "St": 477,
      "ach": 478,
      "ould": 479,
      "bo": 480,
      "ep": 481,
      "wor": 482,
      "other": 483,
      "fic": 484,
      "ical": 485,
      "age": 486,
      "ser": 487,
      "also": 488,
      "low": 489,
      "ition": 490,
      "tim": 491,
      "has": 492,
      "form": 493,
      "comp": 494,
      "ater": 495,
      "ass": 496,
      "au": 497,
      "ign": 498,
      "aw": 499,
      "ction": 500,
      "ll": 501,
      "ev": 502,
      "bl": 503,
      "ure": 504,
      "have": 505,
      "oc": 506,
      "att": 507,
      "play": 508,
      "int": 509,
      "who": 510,
      "18": 511,
      "ke": 512,
      "He": 513,
      "ia": 514,
      "pt": 515,
      "cre": 516,
      "been": 517,
      "iv": 518,
      "ome": 519,
      "two": 520,
      "pos": 521,
      "part": 522,
      "sp": 523,
      ".@": 524,
      "@.@": 525,
      "ence": 526,
      "cont": 527,
      "uring": 528,
      "gu": 529,
      "rec": 530,
      "ree": 531,
      "pres": 532,
      "ok": 533,
      "ran": 534,
      "this": 535,
      "des": 536,
      "It": 537,
      "ile": 538,
      "me": 539,
      "they": 540,
      "ade": 541,
      "year": 542,
      "201": 543,
      "fin": 544,
      "after": 545,
      "dis": 546,
      "comm": 547,
      "ory": 548,
      "sc": 549,
      "ult": 550,
      "ite": 551,
      "cent": 552,
      "Th": 553,
      "fi": 554,
      "fer": 555,
      "we": 556,
      "incl": 557,
      "vel": 558,
      "br": 559,
      "os": 560,
      "ren": 561,
      "ans": 562,
      ",@": 563,
      "@,@": 564,
      "An": 565,
      "ell": 566,
      "ue": 567,
      "ever": 568,
      "work": 569,
      "pre": 570,
      "urn": 571,
      "ace": 572,
      "no": 573,
      "time": 574,
      "ations": 575,
      "into": 576,
      "mer": 577,
      "ark": 578,
      "more": 579,
      "ial": 580,
      "able": 581,
      "Un": 582,
      "spe": 583,
      "ric": 584,
      "most": 585,
      "sion": 586,
      "ces": 587,
      "any": 588,
      "ship": 589,
      "ount": 590,
      "ance": 591,
      "ra": 592,
      "tem": 593,
      "co": 594,
      "ced": 595,
      "she": 596,
      "would": 597,
      "him": 598,
      "og": 599,
      "ason": 600,
      "cond": 601,
      "main": 602,
      "used": 603,
      "amp": 604,
      "ited": 605,
      "cted": 606,
      "inter": 607,
      "ice": 608,
      "ased": 609,
      "bec": 610,
      "red": 611,
      "fore": 612,
      "Al": 613,
      "includ": 614,
      "old": 615,
      "though": 616,
      "ann": 617,
      "fl": 618,
      "min": 619,
      "new": 620,
      "rough": 621,
      "ten": 622,
      "ings": 623,
      "Au": 624,
      "way": 625,
      "mon": 626,
      "ath": 627,
      "only": 628,
      "gan": 629,
      "song": 630,
      "when": 631,
      "ake": 632,
      "ie": 633,
      "iz": 634,
      "air": 635,
      "kn": 636,
      "vis": 637,
      "ates": 638,
      "ild": 639,
      "bu": 640,
      "ubl": 641,
      "them": 642,
      "ents": 643,
      "row": 644,
      "ts": 645,
      "als": 646,
      "ck": 647,
      "during": 648,
      "ail": 649,
      "arch": 650,
      "ted": 651,
      "ph": 652,
      "ase": 653,
      "ions": 654,
      "game": 655,
      "day": 656,
      "reg": 657,
      "Ar": 658,
      "under": 659,
      "go": 660,
      "cess": 661,
      "ose": 662,
      "ang": 663,
      "ble": 664,
      "een": 665,
      "ilm": 666,
      "col": 667,
      "En": 668,
      "ollow": 669,
      "199": 670,
      "about": 671,
      "ward": 672,
      "nor": 673,
      "son": 674,
      "outh": 675,
      "ob": 676,
      "season": 677,
      "ind": 678,
      "some": 679,
      "ry": 680,
      "ret": 681,
      "than": 682,
      "can": 683,
      "writ": 684,
      "while": 685,
      "again": 686,
      "lar": 687,
      "three": 688,
      "gen": 689,
      "sing": 690,
      "les": 691,
      "if": 692,
      "sy": 693,
      "ors": 694,
      "On": 695,
      "ick": 696,
      "ef": 697,
      "betw": 698,
      "between": 699,
      "char": 700,
      "stru": 701,
      "record": 702,
      "where": 703,
      "produ": 704,
      "num": 705,
      "through": 706,
      "ern": 707,
      "ational": 708,
      "dr": 709,
      "ular": 710,
      "Wh": 711,
      "later": 712,
      "oy": 713,
      "rele": 714,
      "iver": 715,
      "film": 716,
      "ames": 717,
      "view": 718,
      "Com": 719,
      "ful": 720,
      "sa": 721,
      "ty": 722,
      "Af": 723,
      "made": 724,
      "ished": 725,
      "cr": 726,
      "ele": 727,
      "ust": 728,
      "mi": 729,
      "set": 730,
      "then": 731,
      "New": 732,
      "ron": 733,
      "As": 734,
      "Amer": 735,
      "Americ": 736,
      "ury": 737,
      "10": 738,
      "rel": 739,
      "bum": 740,
      "ire": 741,
      "off": 742,
      "do": 743,
      "follow": 744,
      "my": 745,
      "ered": 746,
      "ict": 747,
      "appe": 748,
      "000": 749,
      "high": 750,
      "such": 751,
      "led": 752,
      "second": 753,
      "Jo": 754,
      "ating": 755,
      "Re": 756,
      "ton": 757,
      "four": 758,
      "sel": 759,
      "med": 760,
      "sub": 761,
      "publ": 762,
      "This": 763,
      "ss": 764,
      "ving": 765,
      "ven": 766,
      "well": 767,
      "call": 768,
      "..": 769,
      "ters": 770,
      "album": 771,
      "cap": 772,
      "before": 773,
      "Le": 774,
      "sur": 775,
      "ari": 776,
      "At": 777,
      "ma": 778,
      "mus": 779,
      "rop": 780,
      "ily": 781,
      "being": 782,
      "back": 783,
      "found": 784,
      "je": 785,
      "urch": 786,
      "16": 787,
      "sup": 788,
      "loc": 789,
      "there": 790,
      "ual": 791,
      "ood": 792,
      "years": 793,
      "Eng": 794,
      "owever": 795,
      "appear": 796,
      "hel": 797,
      "No": 798,
      "arri": 799,
      "many": 800,
      "known": 801,
      "cur": 802,
      "use": 803,
      "ub": 804,
      "ning": 805,
      "cri": 806,
      "number": 807,
      "long": 808,
      "series": 809,
      "12": 810,
      "like": 811,
      "side": 812,
      "ative": 813,
      "ause": 814,
      "ics": 815,
      "add": 816,
      "point": 817,
      "mber": 818,
      "ince": 819,
      "igin": 820,
      "reat": 821,
      "ird": 822,
      "17": 823,
      "Nor": 824,
      "both": 825,
      "sever": 826,
      "ane": 827,
      "velop": 828,
      "De": 829,
      "ities": 830,
      "15": 831,
      "ft": 832,
      "ave": 833,
      "par": 834,
      "including": 835,
      "epis": 836,
      "line": 837,
      "unt": 838,
      "dire": 839,
      "Brit": 840,
      "ale": 841,
      "against": 842,
      "cho": 843,
      "became": 844,
      "uary": 845,
      "pop": 846,
      "hn": 847,
      "ode": 848,
      "oup": 849,
      "charac": 850,
      "ese": 851,
      "feat": 852,
      "ins": 853,
      "198": 854,
      "II": 855,
      "dif": 856,
      "down": 857,
      "eld": 858,
      "ments": 859,
      "ident": 860,
      "origin": 861,
      "United": 862,
      "cons": 863,
      "ek": 864,
      "tain": 865,
      "eng": 866,
      "atch": 867,
      "rece": 868,
      "team": 869,
      "descri": 870,
      "John": 871,
      "ond": 872,
      "30": 873,
      "suc": 874,
      "develop": 875,
      "century": 876,
      "ise": 877,
      "peri": 878,
      "show": 879,
      "ens": 880,
      "lead": 881,
      "Br": 882,
      "ped": 883,
      "contin": 884,
      "Ro": 885,
      "star": 886,
      "ures": 887,
      "cer": 888,
      "offic": 889,
      "After": 890,
      "stor": 891,
      "194": 892,
      "cial": 893,
      "bed": 894,
      "mem": 895,
      "ide": 896,
      "olog": 897,
      "mill": 898,
      "cle": 899,
      "west": 900,
      "several": 901,
      "oper": 902,
      "uch": 903,
      "comple": 904,
      "dam": 905,
      "sign": 906,
      "began": 907,
      "196": 908,
      "ball": 909,
      "trans": 910,
      "197": 911,
      "may": 912,
      "ves": 913,
      "dec": 914,
      "ised": 915,
      "road": 916,
      "Be": 917,
      "pol": 918,
      "run": 919,
      "remain": 920,
      "ually": 921,
      "hist": 922,
      "lan": 923,
      "Con": 924,
      "near": 925,
      "early": 926,
      "head": 927,
      "present": 928,
      "ost": 929,
      "could": 930,
      "crit": 931,
      "She": 932,
      "did": 933,
      "called": 934,
      "episode": 935,
      "cord": 936,
      "war": 937,
      "eral": 938,
      "cover": 939,
      "ended": 940,
      "ject": 941,
      "ste": 942,
      "une": 943,
      "sm": 944,
      "self": 945,
      "along": 946,
      "ople": 947,
      "large": 948,
      "ific": 949,
      "nam": 950,
      "try": 951,
      "Sh": 952,
      "sist": 953,
      "ru": 954,
      "spec": 955,
      "said": 956,
      "American": 957,
      "Wor": 958,
      "dep": 959,
      "vid": 960,
      "these": 961,
      "gust": 962,
      "ith": 963,
      "For": 964,
      "aking": 965,
      "met": 966,
      "la": 967,
      "May": 968,
      "mil": 969,
      "open": 970,
      "gest": 971,
      "Mar": 972,
      "ley": 973,
      "por": 974,
      "stem": 975,
      "ms": 976,
      "British": 977,
      "until": 978,
      "leg": 979,
      "fam": 980,
      "pass": 981,
      "released": 982,
      "start": 983,
      "city": 984,
      "ines": 985,
      "Ger": 986,
      "War": 987,
      "position": 988,
      "music": 989,
      "same": 990,
      "success": 991,
      "now": 992,
      "val": 993,
      "tow": 994,
      "cept": 995,
      "sive": 996,
      "thern": 997,
      "ived": 998,
      "return": 999,
      "Se": 1000,
      "Car": 1001,
      "They": 1002,
      "50": 1003,
      "km": 1004,
      "area": 1005,
      "design": 1006,
      "ross": 1007,
      "million": 1008,
      "tri": 1009,
      "orn": 1010,
      "state": 1011,
      "because": 1012,
      "ress": 1013,
      "mis": 1014,
      "ather": 1015,
      "cy": 1016,
      "formed": 1017,
      "each": 1018,
      "sim": 1019,
      "xt": 1020,
      "plac": 1021,
      "erson": 1022,
      "ca": 1023,
      "August": 1024,
      "14": 1025,
      "ink": 1026,
      "jor": 1027,
      "come": 1028,
      "vol": 1029,
      "rist": 1030,
      "read": 1031,
      "overn": 1032,
      "fect": 1033,
      "13": 1034,
      "people": 1035,
      "east": 1036,
      "ower": 1037,
      "Sep": 1038,
      "chool": 1039,
      "Ju": 1040,
      "ock": 1041,
      "vide": 1042,
      "Gr": 1043,
      "serv": 1044,
      "car": 1045,
      "let": 1046,
      "support": 1047,
      "oot": 1048,
      "ple": 1049,
      "six": 1050,
      "coun": 1051,
      "ash": 1052,
      "around": 1053,
      "stral": 1054,
      "However": 1055,
      "national": 1056,
      "itt": 1057,
      "group": 1058,
      "hy": 1059,
      "Is": 1060,
      "ision": 1061,
      "field": 1062,
      "rote": 1063,
      "north": 1064,
      "ouse": 1065,
      "ized": 1066,
      "attack": 1067,
      "tember": 1068,
      "consid": 1069,
      "September": 1070,
      "io": 1071,
      "small": 1072,
      "following": 1073,
      "Fe": 1074,
      "men": 1075,
      "book": 1076,
      "az": 1077,
      "continu": 1078,
      "light": 1079,
      "less": 1080,
      "will": 1081,
      "dist": 1082,
      "character": 1083,
      "grap": 1084,
      "mark": 1085,
      "prote": 1086,
      "enn": 1087,
      "contro": 1088,
      "Eu": 1089,
      "ank": 1090,
      "Austral": 1091,
      "very": 1092,
      "life": 1093,
      "World": 1094,
      "five": 1095,
      "top": 1096,
      "late": 1097,
      "sou": 1098,
      "win": 1099,
      "vent": 1100,
      "ales": 1101,
      "result": 1102,
      "lish": 1103,
      "dom": 1104,
      "ib": 1105,
      "list": 1106,
      "ured": 1107,
      "get": 1108,
      "requ": 1109,
      "what": 1110,
      "sol": 1111,
      "fun": 1112,
      "tit": 1113,
      "ague": 1114,
      "cording": 1115,
      "ivers": 1116,
      "rest": 1117,
      "report": 1118,
      "stand": 1119,
      "track": 1120,
      "Col": 1121,
      "aim": 1122,
      "bers": 1123,
      "June": 1124,
      "vision": 1125,
      "US": 1126,
      "reach": 1127,
      "North": 1128,
      "played": 1129,
      "aged": 1130,
      "gy": 1131,
      "ural": 1132,
      "final": 1133,
      "ired": 1134,
      "ied": 1135,
      "ctor": 1136,
      "week": 1137,
      "Her": 1138,
      "name": 1139,
      "vari": 1140,
      "atter": 1141,
      "ious": 1142,
      "Fran": 1143,
      "Wil": 1144,
      "gun": 1145,
      "allow": 1146,
      "ody": 1147,
      "11": 1148,
      "pon": 1149,
      "prom": 1150,
      "since": 1151,
      "Oc": 1152,
      "che": 1153,
      "overnment": 1154,
      "States": 1155,
      "public": 1156,
      "tal": 1157,
      "south": 1158,
      "received": 1159,
      "oman": 1160,
      "major": 1161,
      "ask": 1162,
      "took": 1163,
      "build": 1164,
      "0s": 1165,
      "def": 1166,
      "species": 1167,
      "cour": 1168,
      "Jan": 1169,
      "ately": 1170,
      "soci": 1171,
      "cut": 1172,
      "even": 1173,
      "count": 1174,
      "won": 1175,
      "last": 1176,
      "ined": 1177,
      "child": 1178,
      "partic": 1179,
      "system": 1180,
      "South": 1181,
      "25": 1182,
      "ages": 1183,
      "ained": 1184,
      "batt": 1185,
      "described": 1186,
      "King": 1187,
      "Christ": 1188,
      "appro": 1189,
      "fied": 1190,
      "tober": 1191,
      "October": 1192,
      "world": 1193,
      "Bl": 1194,
      "place": 1195,
      "cast": 1196,
      "just": 1197,
      "moved": 1198,
      "care": 1199,
      "ime": 1200,
      "Gu": 1201,
      "ony": 1202,
      "Man": 1203,
      "giv": 1204,
      "incre": 1205,
      "ilt": 1206,
      "ham": 1207,
      "wards": 1208,
      "ropical": 1209,
      "ork": 1210,
      "gre": 1211,
      "Ac": 1212,
      "organ": 1213,
      "liam": 1214,
      "vious": 1215,
      "ground": 1216,
      "pen": 1217,
      "wrote": 1218,
      "ains": 1219,
      "constru": 1220,
      "July": 1221,
      "York": 1222,
      "band": 1223,
      "kill": 1224,
      "ina": 1225,
      "ional": 1226,
      "Bo": 1227,
      "named": 1228,
      "town": 1229,
      "bre": 1230,
      "gin": 1231,
      "Me": 1232,
      "sequ": 1233,
      "ards": 1234,
      "ude": 1235,
      "due": 1236,
      "differ": 1237,
      "During": 1238,
      "much": 1239,
      "pri": 1240,
      "camp": 1241,
      "water": 1242,
      "lie": 1243,
      "ris": 1244,
      "Apr": 1245,
      "ute": 1246,
      "posed": 1247,
      "single": 1248,
      "April": 1249,
      "Can": 1250,
      "...": 1251,
      "death": 1252,
      "aft": 1253,
      "Mon": 1254,
      "power": 1255,
      "Euro": 1256,
      "another": 1257,
      "lay": 1258,
      "hand": 1259,
      "version": 1260,
      "195": 1261,
      "order": 1262,
      "tempt": 1263,
      "included": 1264,
      "German": 1265,
      "January": 1266,
      "ah": 1267,
      "short": 1268,
      "West": 1269,
      "ature": 1270,
      "Par": 1271,
      "ys": 1272,
      "ility": 1273,
      "within": 1274,
      "ets": 1275,
      "estab": 1276,
      "event": 1277,
      "England": 1278,
      "ove": 1279,
      "stud": 1280,
      "ently": 1281,
      "rown": 1282,
      "gener": 1283,
      "ants": 1284,
      "ored": 1285,
      "ships": 1286,
      "udi": 1287,
      "left": 1288,
      "built": 1289,
      "based": 1290,
      "fur": 1291,
      "although": 1292,
      "attempt": 1293,
      "family": 1294,
      "hal": 1295,
      "third": 1296,
      "claim": 1297,
      "March": 1298,
      "games": 1299,
      "home": 1300,
      "ery": 1301,
      "ement": 1302,
      "All": 1303,
      "sent": 1304,
      "ital": 1305,
      "akes": 1306,
      "pect": 1307,
      "right": 1308,
      "previous": 1309,
      "fall": 1310,
      "vember": 1311,
      "November": 1312,
      "review": 1313,
      "tra": 1314,
      "sed": 1315,
      "best": 1316,
      "193": 1317,
      "period": 1318,
      "person": 1319,
      "issu": 1320,
      "school": 1321,
      "turn": 1322,
      "story": 1323,
      "cas": 1324,
      "Europe": 1325,
      "hum": 1326,
      "His": 1327,
      "government": 1328,
      "expl": 1329,
      "adv": 1330,
      "cember": 1331,
      "December": 1332,
      "make": 1333,
      "ats": 1334,
      "ists": 1335,
      "those": 1336,
      "roy": 1337,
      "dest": 1338,
      "ting": 1339,
      "By": 1340,
      "jo": 1341,
      "urric": 1342,
      "There": 1343,
      "ilar": 1344,
      "avy": 1345,
      "original": 1346,
      "Ste": 1347,
      "using": 1348,
      "storm": 1349,
      "City": 1350,
      "And": 1351,
      "thing": 1352,
      "chan": 1353,
      "ulation": 1354,
      "company": 1355,
      "ought": 1356,
      "inn": 1357,
      "ism": 1358,
      "ext": 1359,
      "command": 1360,
      "month": 1361,
      "When": 1362,
      "den": 1363,
      "fact": 1364,
      "ially": 1365,
      "king": 1366,
      "Cl": 1367,
      "real": 1368,
      "itary": 1369,
      "match": 1370,
      "arm": 1371,
      "ons": 1372,
      "2009": 1373,
      "auth": 1374,
      "rench": 1375,
      "Sc": 1376,
      "ety": 1377,
      "National": 1378,
      "ral": 1379,
      "club": 1380,
      "2008": 1381,
      "trad": 1382,
      "2010": 1383,
      "Ge": 1384,
      "sug": 1385,
      "flu": 1386,
      "fac": 1387,
      "mb": 1388,
      "role": 1389,
      "cor": 1390,
      "church": 1391,
      "ivision": 1392,
      "ling": 1393,
      "gram": 1394,
      "colle": 1395,
      "We": 1396,
      "ref": 1397,
      "Indi": 1398,
      "River": 1399,
      "video": 1400,
      "ster": 1401,
      "still": 1402,
      "move": 1403,
      "So": 1404,
      "player": 1405,
      "Mc": 1406,
      "ston": 1407,
      "possi": 1408,
      "stit": 1409,
      "ically": 1410,
      "iversity": 1411,
      "addition": 1412,
      "riend": 1413,
      "came": 1414,
      "ched": 1415,
      "local": 1416,
      "ae": 1417,
      "ix": 1418,
      "ences": 1419,
      "class": 1420,
      "often": 1421,
      "24": 1422,
      "ium": 1423,
      "ls": 1424,
      "bro": 1425,
      "Li": 1426,
      "ali": 1427,
      "former": 1428,
      "site": 1429,
      "half": 1430,
      "26": 1431,
      "ged": 1432,
      "stri": 1433,
      "urricane": 1434,
      "100": 1435,
      "lim": 1436,
      "mag": 1437,
      "tract": 1438,
      "aken": 1439,
      "continued": 1440,
      "ians": 1441,
      "draw": 1442,
      "21": 1443,
      "23": 1444,
      "Sp": 1445,
      "considered": 1446,
      "next": 1447,
      "2007": 1448,
      "ense": 1449,
      "forman": 1450,
      "28": 1451,
      "suggest": 1452,
      "put": 1453,
      "say": 1454,
      "oung": 1455,
      "round": 1456,
      "effect": 1457,
      "recorded": 1458,
      "French": 1459,
      "ze": 1460,
      "few": 1461,
      "que": 1462,
      "published": 1463,
      "similar": 1464,
      "One": 1465,
      "mid": 1466,
      "Dy": 1467,
      "Ma": 1468,
      "body": 1469,
      "mar": 1470,
      "held": 1471,
      "English": 1472,
      "take": 1473,
      "init": 1474,
      "import": 1475,
      "placed": 1476,
      "production": 1477,
      "quar": 1478,
      "ush": 1479,
      "ending": 1480,
      "Gen": 1481,
      "refer": 1482,
      "elt": 1483,
      "ared": 1484,
      "different": 1485,
      "Pr": 1486,
      "Batt": 1487,
      "chang": 1488,
      "ution": 1489,
      "Ad": 1490,
      "mand": 1491,
      "idge": 1492,
      "wind": 1493,
      "you": 1494,
      "imes": 1495,
      "without": 1496,
      "mp": 1497,
      "commun": 1498,
      "songs": 1499,
      "Pe": 1500,
      "Ph": 1501,
      "ars": 1502,
      "written": 1503,
      "With": 1504,
      "aining": 1505,
      "ampion": 1506,
      "Co": 1507,
      "vo": 1508,
      "among": 1509,
      "history": 1510,
      "level": 1511,
      "Or": 1512,
      "ler": 1513,
      "strong": 1514,
      "State": 1515,
      "ribut": 1516,
      "sty": 1517,
      "force": 1518,
      "polit": 1519,
      "seven": 1520,
      "fort": 1521,
      "Tr": 1522,
      "lor": 1523,
      "performan": 1524,
      "career": 1525,
      "house": 1526,
      "ico": 1527,
      "every": 1528,
      "days": 1529,
      "ided": 1530,
      "Division": 1531,
      "vil": 1532,
      "action": 1533,
      "white": 1534,
      "struct": 1535,
      "further": 1536,
      "tropical": 1537,
      "iment": 1538,
      "2011": 1539,
      "become": 1540,
      "bert": 1541,
      "According": 1542,
      "Inter": 1543,
      "2006": 1544,
      "Although": 1545,
      "Church": 1546,
      "stead": 1547,
      "however": 1548,
      "oute": 1549,
      "find": 1550,
      "22": 1551,
      "release": 1552,
      "Bar": 1553,
      "fr": 1554,
      "aster": 1555,
      "pite": 1556,
      "app": 1557,
      "itar": 1558,
      "rodu": 1559,
      "title": 1560,
      "author": 1561,
      "studi": 1562,
      "particular": 1563,
      "craft": 1564,
      "Canad": 1565,
      "Te": 1566,
      "military": 1567,
      "bird": 1568,
      "foot": 1569,
      "how": 1570,
      "augh": 1571,
      "27": 1572,
      "members": 1573,
      "Roman": 1574,
      "flo": 1575,
      "League": 1576,
      "Port": 1577,
      "Mo": 1578,
      "Per": 1579,
      "wide": 1580,
      "scen": 1581,
      "went": 1582,
      "Song": 1583,
      "ops": 1584,
      "bruary": 1585,
      "February": 1586,
      "ai": 1587,
      "histor": 1588,
      "graph": 1589,
      "lost": 1590,
      "popular": 1591,
      "Ear": 1592,
      "respon": 1593,
      "times": 1594,
      "direct": 1595,
      "mission": 1596,
      "bar": 1597,
      "gave": 1598,
      "sit": 1599,
      "ittle": 1600,
      "produced": 1601,
      "successful": 1602,
      "fan": 1603,
      "tele": 1604,
      "reported": 1605,
      "Mis": 1606,
      "iter": 1607,
      "Dylan": 1608,
      "friend": 1609,
      "provid": 1610,
      "Geor": 1611,
      "served": 1612,
      "clear": 1613,
      "Ser": 1614,
      "mm": 1615,
      "Char": 1616,
      "prof": 1617,
      "fire": 1618,
      "2012": 1619,
      "total": 1620,
      "els": 1621,
      "divid": 1622,
      "common": 1623,
      "Old": 1624,
      "Park": 1625,
      "hold": 1626,
      "ness": 1627,
      "test": 1628,
      "search": 1629,
      "wood": 1630,
      "children": 1631,
      "night": 1632,
      "decl": 1633,
      "und": 1634,
      "given": 1635,
      "enter": 1636,
      "bas": 1637,
      "forces": 1638,
      "seen": 1639,
      "omin": 1640,
      "ford": 1641,
      "Mus": 1642,
      "cult": 1643,
      "moder": 1644,
      "ps": 1645,
      "ator": 1646,
      "stated": 1647,
      "Jap": 1648,
      "sure": 1649,
      "Japan": 1650,
      "having": 1651,
      "include": 1652,
      "ology": 1653,
      "critic": 1654,
      "tour": 1655,
      "depend": 1656,
      "face": 1657,
      "fail": 1658,
      "great": 1659,
      "indu": 1660,
      "invol": 1661,
      "see": 1662,
      "influ": 1663,
      "close": 1664,
      "away": 1665,
      "want": 1666,
      "represent": 1667,
      "alion": 1668,
      "Count": 1669,
      "Afric": 1670,
      "Comp": 1671,
      "country": 1672,
      "To": 1673,
      "signific": 1674,
      "manag": 1675,
      "compet": 1676,
      "capt": 1677,
      "making": 1678,
      "stre": 1679,
      "omen": 1680,
      "chn": 1681,
      "net": 1682,
      "ney": 1683,
      "2013": 1684,
      "fron": 1685,
      "ices": 1686,
      "control": 1687,
      "itch": 1688,
      "Pol": 1689,
      "rad": 1690,
      "eder": 1691,
      "river": 1692,
      "program": 1693,
      "look": 1694,
      "occur": 1695,
      "father": 1696,
      "never": 1697,
      "gl": 1698,
      "Sim": 1699,
      "comb": 1700,
      "ploy": 1701,
      "aur": 1702,
      "lished": 1703,
      "ner": 1704,
      "vict": 1705,
      "should": 1706,
      "construction": 1707,
      "project": 1708,
      "While": 1709,
      "General": 1710,
      "post": 1711,
      "plan": 1712,
      "returned": 1713,
      "University": 1714,
      "change": 1715,
      "Tw": 1716,
      "aren": 1717,
      "writing": 1718,
      "mix": 1719,
      "fem": 1720,
      "xim": 1721,
      "developed": 1722,
      "established": 1723,
      "ger": 1724,
      "ither": 1725,
      "Scot": 1726,
      "29": 1727,
      "reached": 1728,
      "ug": 1729,
      "too": 1730,
      "chart": 1731,
      "190": 1732,
      "These": 1733,
      "America": 1734,
      "itive": 1735,
      "omet": 1736,
      "belie": 1737,
      "ides": 1738,
      "ctions": 1739,
      "cing": 1740,
      "sound": 1741,
      "island": 1742,
      "Dav": 1743,
      "Ire": 1744,
      "announ": 1745,
      "population": 1746,
      "BC": 1747,
      "equ": 1748,
      "law": 1749,
      "works": 1750,
      "Ha": 1751,
      "hour": 1752,
      "ama": 1753,
      "coming": 1754,
      "earli": 1755,
      "novel": 1756,
      "Jack": 1757,
      "cus": 1758,
      "died": 1759,
      "ways": 1760,
      "ho": 1761,
      "word": 1762,
      "ably": 1763,
      "antic": 1764,
      "noted": 1765,
      "introdu": 1766,
      "Ireland": 1767,
      "40": 1768,
      "bur": 1769,
      "igade": 1770,
      "Air": 1771,
      "tail": 1772,
      "consist": 1773,
      "tell": 1774,
      "range": 1775,
      "god": 1776,
      "across": 1777,
      "rent": 1778,
      "thought": 1779,
      "throughout": 1780,
      "building": 1781,
      "blo": 1782,
      "agre": 1783,
      "ondon": 1784,
      "Vi": 1785,
      "Pro": 1786,
      "itions": 1787,
      "London": 1788,
      "ax": 1789,
      "ned": 1790,
      "sum": 1791,
      "scri": 1792,
      "himself": 1793,
      "full": 1794,
      "felt": 1795,
      "room": 1796,
      "William": 1797,
      "teen": 1798,
      "good": 1799,
      "development": 1800,
      "East": 1801,
      "ances": 1802,
      "atic": 1803,
      "board": 1804,
      "ument": 1805,
      "performed": 1806,
      "complete": 1807,
      "Mich": 1808,
      "rap": 1809,
      "important": 1810,
      "significant": 1811,
      "ox": 1812,
      "aint": 1813,
      "typ": 1814,
      "Australia": 1815,
      "pur": 1816,
      "young": 1817,
      "eight": 1818,
      "gar": 1819,
      "covered": 1820,
      "Atl": 1821,
      "human": 1822,
      "destroy": 1823,
      "miles": 1824,
      "live": 1825,
      "television": 1826,
      "ges": 1827,
      "tro": 1828,
      "ades": 1829,
      "interest": 1830,
      "medi": 1831,
      "various": 1832,
      "Black": 1833,
      "fle": 1834,
      "areas": 1835,
      "black": 1836,
      "key": 1837,
      "sk": 1838,
      "sett": 1839,
      "style": 1840,
      "Ed": 1841,
      "burn": 1842,
      "appeared": 1843,
      "Rich": 1844,
      "bus": 1845,
      "na": 1846,
      "aff": 1847,
      "activ": 1848,
      "others": 1849,
      "relation": 1850,
      "bor": 1851,
      "hip": 1852,
      "does": 1853,
      "official": 1854,
      "aign": 1855,
      "events": 1856,
      "marri": 1857,
      "need": 1858,
      "Har": 1859,
      "suf": 1860,
      "Road": 1861,
      "ior": 1862,
      "started": 1863,
      "James": 1864,
      "Roy": 1865,
      "nd": 1866,
      "ones": 1867,
      "idence": 1868,
      "players": 1869,
      "Reg": 1870,
      "gether": 1871,
      "pra": 1872,
      "modern": 1873,
      "appoint": 1874,
      "feet": 1875,
      "Des": 1876,
      "ified": 1877,
      "poem": 1878,
      "experi": 1879,
      "High": 1880,
      "aver": 1881,
      "cil": 1882,
      "tion": 1883,
      "ope": 1884,
      "created": 1885,
      "front": 1886,
      "nu": 1887,
      "prim": 1888,
      "located": 1889,
      "County": 1890,
      "Pl": 1891,
      "Wal": 1892,
      "caused": 1893,
      "ives": 1894,
      "cell": 1895,
      "techn": 1896,
      "fig": 1897,
      "Mount": 1898,
      "189": 1899,
      "60": 1900,
      "You": 1901,
      "vill": 1902,
      "sex": 1903,
      "mother": 1904,
      "Ke": 1905,
      "alth": 1906,
      "ago": 1907,
      "abor": 1908,
      "Ber": 1909,
      "stant": 1910,
      "2004": 1911,
      "coast": 1912,
      "2005": 1913,
      "formation": 1914,
      "ption": 1915,
      "pression": 1916,
      "Pal": 1917,
      "TV": 1918,
      "ising": 1919,
      "ample": 1920,
      "political": 1921,
      "Cor": 1922,
      "mount": 1923,
      "rock": 1924,
      "characters": 1925,
      "mit": 1926,
      "hind": 1927,
      "theast": 1928,
      "relig": 1929,
      "ological": 1930,
      "Mag": 1931,
      "Sci": 1932,
      "Ne": 1933,
      "nal": 1934,
      "taken": 1935,
      "amb": 1936,
      "begin": 1937,
      "ked": 1938,
      "mun": 1939,
      "iness": 1940,
      "rew": 1941,
      "bes": 1942,
      "born": 1943,
      "performance": 1944,
      "Town": 1945,
      "rul": 1946,
      "goal": 1947,
      "ensive": 1948,
      "fight": 1949,
      "ks": 1950,
      "vic": 1951,
      "once": 1952,
      "vert": 1953,
      "grad": 1954,
      "aves": 1955,
      "far": 1956,
      "nia": 1957,
      "pred": 1958,
      "remained": 1959,
      "fav": 1960,
      "ring": 1961,
      "ots": 1962,
      "ively": 1963,
      "ination": 1964,
      "ison": 1965,
      "iting": 1966,
      "survi": 1967,
      "completed": 1968,
      "killed": 1969,
      "Phil": 1970,
      "yard": 1971,
      "ficult": 1972,
      "scored": 1973,
      "ogn": 1974,
      "difficult": 1975,
      "battle": 1976,
      "Of": 1977,
      "mor": 1978,
      "offer": 1979,
      "arded": 1980,
      "quad": 1981,
      "guns": 1982,
      "Kingdom": 1983,
      "Mont": 1984,
      "inv": 1985,
      "meet": 1986,
      "know": 1987,
      "Island": 1988,
      "Australian": 1989,
      "campaign": 1990,
      "tradition": 1991,
      "announced": 1992,
      "Feder": 1993,
      "debut": 1994,
      "van": 1995,
      "omb": 1996,
      "region": 1997,
      "anim": 1998,
      "stars": 1999,
      "grow": 2000,
      "host": 2001,
      "Cup": 2002,
      "da": 2003,
      "little": 2004,
      "process": 2005,
      "peak": 2006,
      "exist": 2007,
      "added": 2008,
      "Company": 2009,
      "instead": 2010,
      "help": 2011,
      "Ho": 2012,
      "Som": 2013,
      "lines": 2014,
      "asing": 2015,
      "exp": 2016,
      "minist": 2017,
      "Pa": 2018,
      "ael": 2019,
      "names": 2020,
      "sess": 2021,
      "cient": 2022,
      "possible": 2023,
      "least": 2024,
      "conne": 2025,
      "ublic": 2026,
      "followed": 2027,
      "Ham": 2028,
      "uses": 2029,
      "redu": 2030,
      "saw": 2031,
      "bet": 2032,
      "member": 2033,
      "Care": 2034,
      "aid": 2035,
      "cause": 2036,
      "ories": 2037,
      "together": 2038,
      "entire": 2039,
      "originally": 2040,
      "months": 2041,
      "wife": 2042,
      "comment": 2043,
      "regular": 2044,
      "Army": 2045,
      "ues": 2046,
      "ality": 2047,
      "southern": 2048,
      "David": 2049,
      "Ex": 2050,
      "Sy": 2051,
      "Some": 2052,
      "rain": 2053,
      "resident": 2054,
      "loss": 2055,
      "Grand": 2056,
      "hurricane": 2057,
      "enced": 2058,
      "study": 2059,
      "Su": 2060,
      "cir": 2061,
      "tar": 2062,
      "women": 2063,
      "associ": 2064,
      "reek": 2065,
      "Po": 2066,
      "Ang": 2067,
      "eastern": 2068,
      "France": 2069,
      "Bill": 2070,
      "Sun": 2071,
      "era": 2072,
      "ape": 2073,
      "aving": 2074,
      "opened": 2075,
      "stat": 2076,
      "lect": 2077,
      "2003": 2078,
      "critics": 2079,
      "stone": 2080,
      "playing": 2081,
      "eventually": 2082,
      "Champion": 2083,
      "base": 2084,
      "broad": 2085,
      "pair": 2086,
      "vest": 2087,
      "recogn": 2088,
      "fif": 2089,
      "features": 2090,
      "Love": 2091,
      "carri": 2092,
      "2015": 2093,
      "dri": 2094,
      "hor": 2095,
      "route": 2096,
      "fourth": 2097,
      "ability": 2098,
      "Two": 2099,
      "Other": 2100,
      "got": 2101,
      "voc": 2102,
      "forced": 2103,
      "ung": 2104,
      "decided": 2105,
      "accept": 2106,
      "ota": 2107,
      "estim": 2108,
      "damage": 2109,
      "profess": 2110,
      "lack": 2111,
      "aly": 2112,
      "heavy": 2113,
      "acy": 2114,
      "points": 2115,
      "birds": 2116,
      "either": 2117,
      "sl": 2118,
      "wall": 2119,
      "termin": 2120,
      "aper": 2121,
      "proble": 2122,
      "tempor": 2123,
      "elect": 2124,
      "ible": 2125,
      "sport": 2126,
      "behind": 2127,
      "finished": 2128,
      "commer": 2129,
      "leading": 2130,
      "break": 2131,
      "Battalion": 2132,
      "Music": 2133,
      "ull": 2134,
      "azine": 2135,
      "believed": 2136,
      "Carey": 2137,
      "sold": 2138,
      "separ": 2139,
      "forms": 2140,
      "speci": 2141,
      "writer": 2142,
      "Mi": 2143,
      "ique": 2144,
      "tre": 2145,
      "condom": 2146,
      "God": 2147,
      "individ": 2148,
      "odes": 2149,
      "liament": 2150,
      "claimed": 2151,
      "Du": 2152,
      "inc": 2153,
      "impro": 2154,
      "current": 2155,
      "El": 2156,
      "cop": 2157,
      "oss": 2158,
      "appearance": 2159,
      "Mor": 2160,
      "employ": 2161,
      "example": 2162,
      "special": 2163,
      "fantry": 2164,
      "Royal": 2165,
      "uc": 2166,
      "almost": 2167,
      "188": 2168,
      "icated": 2169,
      "compan": 2170,
      "vir": 2171,
      "yards": 2172,
      "sts": 2173,
      "directed": 2174,
      "European": 2175,
      "don": 2176,
      "hab": 2177,
      "ara": 2178,
      "respect": 2179,
      "rick": 2180,
      "cert": 2181,
      "service": 2182,
      "generally": 2183,
      "Federer": 2184,
      "Mex": 2185,
      "mater": 2186,
      "pie": 2187,
      "towards": 2188,
      "vier": 2189,
      "igned": 2190,
      "elements": 2191,
      "Robert": 2192,
      "western": 2193,
      "langu": 2194,
      "ization": 2195,
      "2nd": 2196,
      "Min": 2197,
      "case": 2198,
      "dou": 2199,
      "sour": 2200,
      "lower": 2201,
      "brought": 2202,
      "Brigade": 2203,
      "weeks": 2204,
      "cup": 2205,
      "mph": 2206,
      "concl": 2207,
      "upon": 2208,
      "Ev": 2209,
      "Hen": 2210,
      "Oli": 2211,
      "Wales": 2212,
      "mot": 2213,
      "illa": 2214,
      "ends": 2215,
      "lled": 2216,
      "central": 2217,
      "laun": 2218,
      "31": 2219,
      "bel": 2220,
      "ceed": 2221,
      "bodi": 2222,
      "featured": 2223,
      "35": 2224,
      "Stre": 2225,
      "aircraft": 2226,
      "highway": 2227,
      "ready": 2228,
      "Viet": 2229,
      "stage": 2230,
      "assist": 2231,
      "term": 2232,
      "director": 2233,
      "date": 2234,
      "ida": 2235,
      "stry": 2236,
      "crew": 2237,
      "mean": 2238,
      "Flor": 2239,
      "nat": 2240,
      "via": 2241,
      "general": 2242,
      "White": 2243,
      "dle": 2244,
      "nine": 2245,
      "research": 2246,
      "defe": 2247,
      "contract": 2248,
      "approach": 2249,
      "International": 2250,
      "Ab": 2251,
      "Part": 2252,
      "SA": 2253,
      "non": 2254,
      "ply": 2255,
      "sw": 2256,
      "vers": 2257,
      "provided": 2258,
      "George": 2259,
      "Day": 2260,
      "ordan": 2261,
      "meas": 2262,
      "ey": 2263,
      "ier": 2264,
      "uck": 2265,
      "compl": 2266,
      "cret": 2267,
      "Val": 2268,
      "Act": 2269,
      "Follow": 2270,
      "Jordan": 2271,
      "fly": 2272,
      "mas": 2273,
      "inal": 2274,
      "oted": 2275,
      "mode": 2276,
      "parts": 2277,
      "Hero": 2278,
      "earlier": 2279,
      "From": 2280,
      "free": 2281,
      "inch": 2282,
      "reve": 2283,
      "Thom": 2284,
      "allowed": 2285,
      "Cent": 2286,
      "press": 2287,
      "rather": 2288,
      "flood": 2289,
      "female": 2290,
      "Atlantic": 2291,
      "House": 2292,
      "nar": 2293,
      "pat": 2294,
      "ration": 2295,
      "ington": 2296,
      "2014": 2297,
      "ino": 2298,
      "largest": 2299,
      "opening": 2300,
      "victory": 2301,
      "Following": 2302,
      "reason": 2303,
      "heel": 2304,
      "lear": 2305,
      "sea": 2306,
      "worked": 2307,
      "subsequ": 2308,
      "certain": 2309,
      "particularly": 2310,
      "manager": 2311,
      "Jew": 2312,
      "Mad": 2313,
      "Rep": 2314,
      "19th": 2315,
      "cially": 2316,
      "useum": 2317,
      "travel": 2318,
      "troops": 2319,
      "Mary": 2320,
      "ded": 2321,
      "audi": 2322,
      "working": 2323,
      "III": 2324,
      "operations": 2325,
      "Christian": 2326,
      "joined": 2327,
      "wanted": 2328,
      "section": 2329,
      "urb": 2330,
      "condu": 2331,
      "spir": 2332,
      "rail": 2333,
      "Red": 2334,
      "evidence": 2335,
      "standing": 2336,
      "San": 2337,
      "reli": 2338,
      "northern": 2339,
      "Command": 2340,
      "cru": 2341,
      "Florida": 2342,
      "Fir": 2343,
      "Play": 2344,
      "hon": 2345,
      "Paul": 2346,
      "70": 2347,
      "Ir": 2348,
      "Rock": 2349,
      "leng": 2350,
      "hest": 2351,
      "anti": 2352,
      "outside": 2353,
      "engine": 2354,
      "Street": 2355,
      "Dr": 2356,
      "foc": 2357,
      "stren": 2358,
      "love": 2359,
      "court": 2360,
      "saying": 2361,
      "cross": 2362,
      "ission": 2363,
      "ellow": 2364,
      "pract": 2365,
      "Game": 2366,
      "whom": 2367,
      "emy": 2368,
      "issue": 2369,
      "hours": 2370,
      "Med": 2371,
      "ential": 2372,
      "coll": 2373,
      "AA": 2374,
      "ata": 2375,
      "ators": 2376,
      "account": 2377,
      "2001": 2378,
      "avail": 2379,
      "185": 2380,
      "souri": 2381,
      "Missouri": 2382,
      "Cr": 2383,
      "streng": 2384,
      "38": 2385,
      "500": 2386,
      "Bra": 2387,
      "atin": 2388,
      "deal": 2389,
      "territ": 2390,
      "length": 2391,
      "Sw": 2392,
      "fre": 2393,
      "mach": 2394,
      "tel": 2395,
      "Gal": 2396,
      "My": 2397,
      "stay": 2398,
      "tee": 2399,
      "plann": 2400,
      "Tech": 2401,
      "material": 2402,
      "gg": 2403,
      "gold": 2404,
      "ping": 2405,
      "poor": 2406,
      "designed": 2407,
      "Bay": 2408,
      "Cro": 2409,
      "har": 2410,
      "seem": 2411,
      "prob": 2412,
      "nomin": 2413,
      "think": 2414,
      "argu": 2415,
      "soon": 2416,
      "praised": 2417,
      "Don": 2418,
      "Mark": 2419,
      "conom": 2420,
      "pool": 2421,
      "ishing": 2422,
      "quest": 2423,
      "remains": 2424,
      "Indian": 2425,
      "football": 2426,
      "Best": 2427,
      "drop": 2428,
      "aland": 2429,
      "amount": 2430,
      "counter": 2431,
      "suffer": 2432,
      "Ze": 2433,
      "bill": 2434,
      "hous": 2435,
      "lam": 2436,
      "station": 2437,
      "flight": 2438,
      "winds": 2439,
      "Michael": 2440,
      "Gre": 2441,
      "phas": 2442,
      "quick": 2443,
      "ival": 2444,
      "discus": 2445,
      "type": 2446,
      "increased": 2447,
      "Coun": 2448,
      "Pri": 2449,
      "cul": 2450,
      "past": 2451,
      "scre": 2452,
      "viol": 2453,
      "previously": 2454,
      "appointed": 2455,
      "First": 2456,
      "45": 2457,
      "Bus": 2458,
      "Egy": 2459,
      "dol": 2460,
      "inj": 2461,
      "ica": 2462,
      "acc": 2463,
      "deli": 2464,
      "units": 2465,
      "above": 2466,
      "pressed": 2467,
      "Cap": 2468,
      "ecut": 2469,
      "ties": 2470,
      "replaced": 2471,
      "positive": 2472,
      "quarter": 2473,
      "script": 2474,
      "Richard": 2475,
      "Dep": 2476,
      "thod": 2477,
      "erous": 2478,
      "lands": 2479,
      "ranch": 2480,
      "maintain": 2481,
      "passed": 2482,
      "relationship": 2483,
      "Am": 2484,
      "spo": 2485,
      "ened": 2486,
      "alter": 2487,
      "ids": 2488,
      "clos": 2489,
      "civil": 2490,
      "business": 2491,
      "Despite": 2492,
      "pain": 2493,
      "rid": 2494,
      "invest": 2495,
      "aries": 2496,
      "ighest": 2497,
      "interview": 2498,
      "signed": 2499,
      "hib": 2500,
      "taking": 2501,
      "threat": 2502,
      "achie": 2503,
      "going": 2504,
      "ributed": 2505,
      "Henry": 2506,
      "Hill": 2507,
      "186": 2508,
      "osaur": 2509,
      "cycl": 2510,
      "quadron": 2511,
      "estimated": 2512,
      "specific": 2513,
      "Que": 2514,
      "ault": 2515,
      "ff": 2516,
      "ik": 2517,
      "unk": 2518,
      "rang": 2519,
      "available": 2520,
      "highest": 2521,
      "lin": 2522,
      "native": 2523,
      "race": 2524,
      "somet": 2525,
      "tor": 2526,
      "uel": 2527,
      "graphy": 2528,
      "structure": 2529,
      "Japanese": 2530,
      "stop": 2531,
      "sell": 2532,
      "ples": 2533,
      "Carol": 2534,
      "situ": 2535,
      "Oldham": 2536,
      "involved": 2537,
      "President": 2538,
      "Times": 2539,
      "Ver": 2540,
      "must": 2541,
      "treat": 2542,
      "comes": 2543,
      "suggested": 2544,
      "mixed": 2545,
      "Tor": 2546,
      "shot": 2547,
      "establish": 2548,
      "turned": 2549,
      "introduced": 2550,
      "Brown": 2551,
      "Vir": 2552,
      "ds": 2553,
      "inst": 2554,
      "usually": 2555,
      "goals": 2556,
      "likely": 2557,
      "scene": 2558,
      "Olivier": 2559,
      "FA": 2560,
      "itself": 2561,
      "league": 2562,
      "ention": 2563,
      "Most": 2564,
      "bound": 2565,
      "cern": 2566,
      "oney": 2567,
      "average": 2568,
      "ding": 2569,
      "give": 2570,
      "tolo": 2571,
      "proper": 2572,
      "India": 2573,
      "Canada": 2574,
      "Egypt": 2575,
      "School": 2576,
      "olic": 2577,
      "except": 2578,
      "actions": 2579,
      "Arab": 2580,
      "damaged": 2581,
      "transport": 2582,
      "limited": 2583,
      "Mexico": 2584,
      "90": 2585,
      "Rac": 2586,
      "told": 2587,
      "super": 2588,
      "sia": 2589,
      "whose": 2590,
      "village": 2591,
      "Cam": 2592,
      "Cong": 2593,
      "bri": 2594,
      "ita": 2595,
      "Chin": 2596,
      "recording": 2597,
      "transfer": 2598,
      "brother": 2599,
      "responsi": 2600,
      "Thomas": 2601,
      "bow": 2602,
      "ming": 2603,
      "oring": 2604,
      "utes": 2605,
      "size": 2606,
      "prepar": 2607,
      "possib": 2608,
      "ximately": 2609,
      "religious": 2610,
      "Irish": 2611,
      "Ap": 2612,
      "hit": 2613,
      "vin": 2614,
      "ament": 2615,
      "ordered": 2616,
      "occup": 2617,
      "block": 2618,
      "temporary": 2619,
      "But": 2620,
      "Pac": 2621,
      "Str": 2622,
      "aut": 2623,
      "hom": 2624,
      "ald": 2625,
      "bell": 2626,
      "187": 2627,
      "shows": 2628,
      "mass": 2629,
      "thus": 2630,
      "ana": 2631,
      "commission": 2632,
      "Britain": 2633,
      "increasing": 2634,
      "Republic": 2635,
      "80": 2636,
      "NY": 2637,
      "Wheel": 2638,
      "ient": 2639,
      "ky": 2640,
      "mult": 2641,
      "ray": 2642,
      "vice": 2643,
      "touch": 2644,
      "icted": 2645,
      "istic": 2646,
      "Hurricane": 2647,
      "Mac": 2648,
      "Many": 2649,
      "Rose": 2650,
      "pond": 2651,
      "thedr": 2652,
      "irth": 2653,
      "space": 2654,
      "despite": 2655,
      "nearly": 2656,
      "Guitar": 2657,
      "changes": 2658,
      "Hel": 2659,
      "Hall": 2660,
      "Later": 2661,
      "watch": 2662,
      "educ": 2663,
      "beli": 2664,
      "forward": 2665,
      "clo": 2666,
      "social": 2667,
      "feel": 2668,
      "consider": 2669,
      "marked": 2670,
      "community": 2671,
      "Zealand": 2672,
      "econom": 2673,
      "mal": 2674,
      "independ": 2675,
      "surround": 2676,
      "Jer": 2677,
      "daugh": 2678,
      "err": 2679,
      "lected": 2680,
      "Union": 2681,
      "international": 2682,
      "object": 2683,
      "ronic": 2684,
      "listed": 2685,
      "initially": 2686,
      "commercial": 2687,
      "already": 2688,
      "immedi": 2689,
      "cts": 2690,
      "usion": 2691,
      "That": 2692,
      "asked": 2693,
      "Peter": 2694,
      "hard": 2695,
      "might": 2696,
      "aces": 2697,
      "chap": 2698,
      "defin": 2699,
      "depression": 2700,
      "anna": 2701,
      "archae": 2702,
      "winning": 2703,
      "failed": 2704,
      "Chinese": 2705,
      "36": 2706,
      "Gold": 2707,
      "woman": 2708,
      "states": 2709,
      "espe": 2710,
      "according": 2711,
      "detail": 2712,
      "pected": 2713,
      "training": 2714,
      "score": 2715,
      "related": 2716,
      "capital": 2717,
      "probably": 2718,
      "Pacific": 2719,
      "especially": 2720,
      "Em": 2721,
      "food": 2722,
      "here": 2723,
      "rate": 2724,
      "vate": 2725,
      "arily": 2726,
      "execut": 2727,
      "2002": 2728,
      "occas": 2729,
      "minor": 2730,
      "visit": 2731,
      "language": 2732,
      "fut": 2733,
      "enj": 2734,
      "chol": 2735,
      "text": 2736,
      "commit": 2737,
      "cost": 2738,
      "studio": 2739,
      "Championship": 2740,
      "natural": 2741,
      "pot": 2742,
      "ilities": 2743,
      "hair": 2744,
      "spent": 2745,
      "coach": 2746,
      "includes": 2747,
      "arrived": 2748,
      "Wheeler": 2749,
      "Jin": 2750,
      "ield": 2751,
      "enough": 2752,
      "army": 2753,
      "respond": 2754,
      "moving": 2755,
      "pho": 2756,
      "remaining": 2757,
      "particip": 2758,
      "Canadian": 2759,
      "thedral": 2760,
      "Cath": 2761,
      "Navy": 2762,
      "ken": 2763,
      "male": 2764,
      "mention": 2765,
      "center": 2766,
      "prevent": 2767,
      "sometimes": 2768,
      "Law": 2769,
      "UK": 2770,
      "dy": 2771,
      "doc": 2772,
      "pit": 2773,
      "atory": 2774,
      "aled": 2775,
      "approximately": 2776,
      "reviews": 2777,
      "quarters": 2778,
      "fru": 2779,
      "hap": 2780,
      "latter": 2781,
      "nation": 2782,
      "slow": 2783,
      "amed": 2784,
      "dead": 2785,
      "phys": 2786,
      "required": 2787,
      "Hist": 2788,
      "pan": 2789,
      "sat": 2790,
      "ries": 2791,
      "ula": 2792,
      "nest": 2793,
      "Associ": 2794,
      "tons": 2795,
      "Africa": 2796,
      "beginning": 2797,
      "Res": 2798,
      "liter": 2799,
      "aters": 2800,
      "urt": 2801,
      "prog": 2802,
      "perform": 2803,
      "2000": 2804,
      "running": 2805,
      "positions": 2806,
      "Angel": 2807,
      "lot": 2808,
      "eding": 2809,
      "entolo": 2810,
      "ateg": 2811,
      "exc": 2812,
      "ief": 2813,
      "decision": 2814,
      "soldi": 2815,
      "Scientolo": 2816,
      "defeated": 2817,
      "Mid": 2818,
      "bit": 2819,
      "sen": 2820,
      "yer": 2821,
      "inated": 2822,
      "Star": 2823,
      "Art": 2824,
      "additional": 2825,
      "Regiment": 2826,
      "Super": 2827,
      "Creek": 2828,
      "Lu": 2829,
      "jour": 2830,
      "oid": 2831,
      "ication": 2832,
      "ister": 2833,
      "president": 2834,
      "better": 2835,
      "Rachel": 2836,
      "Hol": 2837,
      "aring": 2838,
      "concern": 2839,
      "uded": 2840,
      "evol": 2841,
      "ference": 2842,
      "larger": 2843,
      "students": 2844,
      "Virgin": 2845,
      "Sing": 2846,
      "aby": 2847,
      "whe": 2848,
      "sem": 2849,
      "sip": 2850,
      "notes": 2851,
      "supported": 2852,
      "constructed": 2853,
      "magazine": 2854,
      "1st": 2855,
      "Award": 2856,
      "Gl": 2857,
      "Oly": 2858,
      "staff": 2859,
      "pressure": 2860,
      "bridge": 2861,
      "police": 2862,
      "changed": 2863,
      "Scott": 2864,
      "agreed": 2865,
      "habit": 2866,
      "Olymp": 2867,
      "Lad": 2868,
      "cou": 2869,
      "poet": 2870,
      "active": 2871,
      "Charles": 2872,
      "fleet": 2873,
      "Light": 2874,
      "Rus": 2875,
      "birth": 2876,
      "cele": 2877,
      "shown": 2878,
      "1995": 2879,
      "Colle": 2880,
      "Billboard": 2881,
      "frequ": 2882,
      "teach": 2883,
      "aven": 2884,
      "assigned": 2885,
      "plays": 2886,
      "rics": 2887,
      "future": 2888,
      "Awards": 2889,
      "pay": 2890,
      "ugu": 2891,
      "provide": 2892,
      "print": 2893,
      "fifth": 2894,
      "75": 2895,
      "Penn": 2896,
      "acqu": 2897,
      "ctive": 2898,
      "agon": 2899,
      "uments": 2900,
      "pose": 2901,
      "aval": 2902,
      "keep": 2903,
      "discovered": 2904,
      "selves": 2905,
      "Hor": 2906,
      "Tom": 2907,
      "appl": 2908,
      "temper": 2909,
      "syn": 2910,
      "location": 2911,
      "feature": 2912,
      "broadcast": 2913,
      "Mos": 2914,
      "Ri": 2915,
      "cal": 2916,
      "ny": 2917,
      "pitch": 2918,
      "sal": 2919,
      "iss": 2920,
      "itz": 2921,
      "ami": 2922,
      "becoming": 2923,
      "subject": 2924,
      "surface": 2925,
      "idea": 2926,
      "prior": 2927,
      "circ": 2928,
      "uals": 2929,
      "ander": 2930,
      "defeat": 2931,
      "ifa": 2932,
      "rison": 2933,
      "response": 2934,
      "33": 2935,
      "NA": 2936,
      "cm": 2937,
      "exam": 2938,
      "box": 2939,
      "operation": 2940,
      "smaller": 2941,
      "Western": 2942,
      "FI": 2943,
      "inci": 2944,
      "idents": 2945,
      "intended": 2946,
      "groups": 2947,
      "summer": 2948,
      "Scientology": 2949,
      "Fort": 2950,
      "Great": 2951,
      "Sou": 2952,
      "paren": 2953,
      "rd": 2954,
      "sis": 2955,
      "cean": 2956,
      "exten": 2957,
      "percent": 2958,
      "mostly": 2959,
      "themselves": 2960,
      "stein": 2961,
      "metres": 2962,
      "Haifa": 2963,
      "48": 2964,
      "Pre": 2965,
      "Year": 2966,
      "makes": 2967,
      "orial": 2968,
      "champion": 2969,
      "lies": 2970,
      "ishop": 2971,
      "quare": 2972,
      "minutes": 2973,
      "referred": 2974,
      "captured": 2975,
      "favor": 2976,
      "Bri": 2977,
      "Dan": 2978,
      "Film": 2979,
      "Ot": 2980,
      "Since": 2981,
      "flow": 2982,
      "hop": 2983,
      "edy": 2984,
      "enon": 2985,
      "atest": 2986,
      "create": 2987,
      "2016": 2988,
      "ize": 2989,
      "musical": 2990,
      "largely": 2991,
      "stitute": 2992,
      "alifor": 2993,
      "professional": 2994,
      "problems": 2995,
      "Croat": 2996,
      "Association": 2997,
      "Go": 2998,
      "coup": 2999,
      "pi": 3000,
      "pers": 3001,
      "entered": 3002,
      "affic": 3003,
      "ranked": 3004,
      "Under": 3005,
      "rael": 3006,
      "Parliament": 3007,
      "Lord": 3008,
      "gins": 3009,
      "secur": 3010,
      "pole": 3011,
      "ros": 3012,
      "conf": 3013,
      "contr": 3014,
      "apo": 3015,
      "reser": 3016,
      "contains": 3017,
      "office": 3018,
      "Frank": 3019,
      "radio": 3020,
      "Califor": 3021,
      "fill": 3022,
      "hol": 3023,
      "kan": 3024,
      "link": 3025,
      "ners": 3026,
      "send": 3027,
      "demon": 3028,
      "apt": 3029,
      "artment": 3030,
      "aker": 3031,
      "Arch": 3032,
      "1999": 3033,
      "indic": 3034,
      "appears": 3035,
      "Galve": 3036,
      "closed": 3037,
      "bi": 3038,
      "bot": 3039,
      "fell": 3040,
      "money": 3041,
      "otion": 3042,
      "guitar": 3043,
      "relative": 3044,
      "experience": 3045,
      "How": 3046,
      "Mal": 3047,
      "Oper": 3048,
      "bio": 3049,
      "nature": 3050,
      "zz": 3051,
      "ergy": 3052,
      "asy": 3053,
      "assi": 3054,
      "ully": 3055,
      "1950": 3056,
      "ume": 3057,
      "tray": 3058,
      "sian": 3059,
      "grant": 3060,
      "jected": 3061,
      "stories": 3062,
      "Israel": 3063,
      "majority": 3064,
      "voice": 3065,
      "Earth": 3066,
      "Jewish": 3067,
      "Council": 3068,
      "ns": 3069,
      "adop": 3070,
      "concept": 3071,
      "media": 3072,
      "McC": 3073,
      "Galveston": 3074,
      "Camp": 3075,
      "Tur": 3076,
      "Wood": 3077,
      "reme": 3078,
      "roll": 3079,
      "leaving": 3080,
      "strict": 3081,
      "critical": 3082,
      "market": 3083,
      "bodies": 3084,
      "Bal": 3085,
      "Bel": 3086,
      "ML": 3087,
      "Var": 3088,
      "cred": 3089,
      "ga": 3090,
      "mir": 3091,
      "sil": 3092,
      "orm": 3093,
      "Chic": 3094,
      "colon": 3095,
      "effects": 3096,
      "primary": 3097,
      "schol": 3098,
      "always": 3099,
      "lived": 3100,
      "Another": 3101,
      "writers": 3102,
      "election": 3103,
      "Brad": 3104,
      "gods": 3105,
      "married": 3106,
      "Cer": 3107,
      "Tri": 3108,
      "bal": 3109,
      "rare": 3110,
      "attract": 3111,
      "administ": 3112,
      "depart": 3113,
      "pring": 3114,
      "Station": 3115,
      "ept": 3116,
      "films": 3117,
      "officers": 3118,
      "runs": 3119,
      "launched": 3120,
      "brief": 3121,
      "California": 3122,
      "39": 3123,
      "mel": 3124,
      "rup": 3125,
      "imp": 3126,
      "teams": 3127,
      "Bey": 3128,
      "quickly": 3129,
      "Catholic": 3130,
      "gir": 3131,
      "uter": 3132,
      "lyrics": 3133,
      "deep": 3134,
      "verse": 3135,
      "proposed": 3136,
      "arts": 3137,
      "spital": 3138,
      "meant": 3139,
      "minute": 3140,
      "Record": 3141,
      "episodes": 3142,
      "occurred": 3143,
      "37": 3144,
      "Ale": 3145,
      "If": 3146,
      "Not": 3147,
      "increase": 3148,
      "equip": 3149,
      "settle": 3150,
      "mitted": 3151,
      "daughter": 3152,
      "whether": 3153,
      "Mer": 3154,
      "Saint": 3155,
      "fans": 3156,
      "pian": 3157,
      "exper": 3158,
      "illery": 3159,
      "fected": 3160,
      "northeast": 3161,
      "course": 3162,
      "destroyed": 3163,
      "47": 3164,
      "Mr": 3165,
      "Nix": 3166,
      "Qu": 3167,
      "ben": 3168,
      "nel": 3169,
      "takes": 3170,
      "insp": 3171,
      "rein": 3172,
      "traffic": 3173,
      "earth": 3174,
      "bring": 3175,
      "longer": 3176,
      "fighting": 3177,
      "meaning": 3178,
      "Central": 3179,
      "Chicago": 3180,
      "hus": 3181,
      "job": 3182,
      "theme": 3183,
      "ream": 3184,
      "twent": 3185,
      "upper": 3186,
      "iva": 3187,
      "numbers": 3188,
      "ville": 3189,
      "aught": 3190,
      "culture": 3191,
      "soldiers": 3192,
      "Haw": 3193,
      "mom": 3194,
      "andon": 3195,
      "leave": 3196,
      "secut": 3197,
      "determin": 3198,
      "trade": 3199,
      "overnor": 3200,
      "awarded": 3201,
      "Alice": 3202,
      "syl": 3203,
      "ario": 3204,
      "Northern": 3205,
      "carried": 3206,
      "celebr": 3207,
      "Latin": 3208,
      "hou": 3209,
      "ores": 3210,
      "pet": 3211,
      "zy": 3212,
      "throw": 3213,
      "bled": 3214,
      "fles": 3215,
      "Enter": 3216,
      "1998": 3217,
      "private": 3218,
      "Battle": 3219,
      "directly": 3220,
      "undred": 3221,
      "competition": 3222,
      "conducted": 3223,
      "Lou": 3224,
      "gal": 3225,
      "nis": 3226,
      "sey": 3227,
      "Ital": 3228,
      "newsp": 3229,
      "records": 3230,
      "attacks": 3231,
      "request": 3232,
      "subsequently": 3233,
      "400": 3234,
      "Hu": 3235,
      "Route": 3236,
      "Villa": 3237,
      "gent": 3238,
      "tom": 3239,
      "tourn": 3240,
      "1930": 3241,
      "plans": 3242,
      "emer": 3243,
      "earned": 3244,
      "onym": 3245,
      "issued": 3246,
      "corpor": 3247,
      "Dj": 3248,
      "Tex": 3249,
      "onto": 3250,
      "semb": 3251,
      "neg": 3252,
      "vie": 3253,
      "overall": 3254,
      "hero": 3255,
      "20th": 3256,
      "Alkan": 3257,
      "1993": 3258,
      "industry": 3259,
      "influence": 3260,
      "stream": 3261,
      "Polish": 3262,
      "commented": 3263,
      "49": 3264,
      "Fore": 3265,
      "RA": 3266,
      "gas": 3267,
      "rat": 3268,
      "ites": 3269,
      "dem": 3270,
      "aging": 3271,
      "ports": 3272,
      "serious": 3273,
      "finally": 3274,
      "fully": 3275,
      "books": 3276,
      "Otto": 3277,
      "Nixon": 3278,
      "Land": 3279,
      "Tay": 3280,
      "Tour": 3281,
      "dig": 3282,
      "kil": 3283,
      "ses": 3284,
      "ying": 3285,
      "compared": 3286,
      "whole": 3287,
      "method": 3288,
      "Second": 3289,
      "greater": 3290,
      "scenes": 3291,
      "network": 3292,
      "Liver": 3293,
      "Ross": 3294,
      "Sar": 3295,
      "Sever": 3296,
      "done": 3297,
      "mig": 3298,
      "image": 3299,
      "unable": 3300,
      "plot": 3301,
      "Its": 3302,
      "Span": 3303,
      "Early": 3304,
      "piece": 3305,
      "double": 3306,
      "Texas": 3307,
      "Liverpool": 3308,
      "Ca": 3309,
      "Lo": 3310,
      "Over": 3311,
      "Sam": 3312,
      "uk": 3313,
      "erset": 3314,
      "health": 3315,
      "concert": 3316,
      "ett": 3317,
      "div": 3318,
      "necess": 3319,
      "expected": 3320,
      "mium": 3321,
      "buildings": 3322,
      "Somerset": 3323,
      "Lady": 3324,
      "Fow": 3325,
      "Tropical": 3326,
      "gian": 3327,
      "jud": 3328,
      "sus": 3329,
      "yet": 3330,
      "load": 3331,
      "centre": 3332,
      "Mosley": 3333,
      "Bow": 3334,
      "Mil": 3335,
      "Squadron": 3336,
      "big": 3337,
      "sets": 3338,
      "begins": 3339,
      "confl": 3340,
      "living": 3341,
      "actor": 3342,
      "prison": 3343,
      "party": 3344,
      "finan": 3345,
      "aily": 3346,
      "1996": 3347,
      "legal": 3348,
      "rapid": 3349,
      "nucle": 3350,
      "Busch": 3351,
      "300": 3352,
      "Spe": 3353,
      "Tenn": 3354,
      "prec": 3355,
      "purch": 3356,
      "waters": 3357,
      "terms": 3358,
      "ump": 3359,
      "classi": 3360,
      "Studi": 3361,
      "discover": 3362,
      "personal": 3363,
      "3rd": 3364,
      "Lake": 3365,
      "Mart": 3366,
      "cé": 3367,
      "hood": 3368,
      "ency": 3369,
      "anger": 3370,
      "Christmas": 3371,
      "advant": 3372,
      "movement": 3373,
      "marriage": 3374,
      "Taylor": 3375,
      "Spanish": 3376,
      "Cour": 3377,
      "dated": 3378,
      "fa": 3379,
      "mur": 3380,
      "wing": 3381,
      "ato": 3382,
      "access": 3383,
      "withdraw": 3384,
      "shoot": 3385,
      "mith": 3386,
      "helped": 3387,
      "portray": 3388,
      "status": 3389,
      "screen": 3390,
      "dollar": 3391,
      "sylvan": 3392,
      "Several": 3393,
      "Fowler": 3394,
      "Bro": 3395,
      "NC": 3396,
      "bs": 3397,
      "batter": 3398,
      "bomb": 3399,
      "sched": 3400,
      "information": 3401,
      "Three": 3402,
      "starting": 3403,
      "standard": 3404,
      "sequence": 3405,
      "schools": 3406,
      "join": 3407,
      "African": 3408,
      "traditional": 3409,
      "planned": 3410,
      "suffered": 3411,
      "32": 3412,
      "Ter": 3413,
      "bad": 3414,
      "dark": 3415,
      "han": 3416,
      "kind": 3417,
      "wound": 3418,
      "escap": 3419,
      "itor": 3420,
      "demand": 3421,
      "alled": 3422,
      "Infantry": 3423,
      "bery": 3424,
      "weight": 3425,
      "speed": 3426,
      "venue": 3427,
      "giving": 3428,
      "activity": 3429,
      "figure": 3430,
      "associated": 3431,
      "inspired": 3432,
      "Jane": 3433,
      "pow": 3434,
      "path": 3435,
      "thick": 3436,
      "forts": 3437,
      "ultim": 3438,
      "abandon": 3439,
      "division": 3440,
      "ously": 3441,
      "athan": 3442,
      "regard": 3443,
      "Common": 3444,
      "leaders": 3445,
      "presented": 3446,
      "Sovi": 3447,
      "condoms": 3448,
      "source": 3449,
      "Party": 3450,
      "machine": 3451,
      "husband": 3452,
      "sembly": 3453,
      "edge": 3454,
      "bey": 3455,
      "dev": 3456,
      "lock": 3457,
      "possess": 3458,
      "presence": 3459,
      "raised": 3460,
      "tracks": 3461,
      "allowing": 3462,
      "greatest": 3463,
      "inner": 3464,
      "Soci": 3465,
      "initial": 3466,
      "Series": 3467,
      "expand": 3468,
      "companies": 3469,
      "Bob": 3470,
      "Fle": 3471,
      "Foot": 3472,
      "pal": 3473,
      "slight": 3474,
      "ican": 3475,
      "deb": 3476,
      "unit": 3477,
      "suit": 3478,
      "portion": 3479,
      "viewers": 3480,
      "continue": 3481,
      "nearby": 3482,
      "Paris": 3483,
      "Anderson": 3484,
      "Carolina": 3485,
      "document": 3486,
      "Boy": 3487,
      "Gi": 3488,
      "Mill": 3489,
      "fit": 3490,
      "ius": 3491,
      "kick": 3492,
      "anal": 3493,
      "ederal": 3494,
      "genus": 3495,
      "collection": 3496,
      "cyclone": 3497,
      "Virginia": 3498,
      "sylvania": 3499,
      "44": 3500,
      "Im": 3501,
      "Jam": 3502,
      "Just": 3503,
      "hundred": 3504,
      "chall": 3505,
      "olk": 3506,
      "confir": 3507,
      "ulated": 3508,
      "composed": 3509,
      "web": 3510,
      "weap": 3511,
      "annual": 3512,
      "complex": 3513,
      "services": 3514,
      "Queen": 3515,
      "education": 3516,
      "76": 3517,
      "Games": 3518,
      "Sha": 3519,
      "Tre": 3520,
      "Vict": 3521,
      "cad": 3522,
      "ering": 3523,
      "oncé": 3524,
      "really": 3525,
      "step": 3526,
      "abs": 3527,
      "boy": 3528,
      "1997": 3529,
      "producer": 3530,
      "numerous": 3531,
      "polic": 3532,
      "cathedral": 3533,
      "extended": 3534,
      "commander": 3535,
      "figures": 3536,
      "territory": 3537,
      "Beyoncé": 3538,
      "Ever": 3539,
      "Open": 3540,
      "park": 3541,
      "things": 3542,
      "atre": 3543,
      "ases": 3544,
      "iser": 3545,
      "heav": 3546,
      "essa": 3547,
      "Germany": 3548,
      "proteins": 3549,
      "friends": 3550,
      "vocals": 3551,
      "Miami": 3552,
      "enjoy": 3553,
      "Ottoman": 3554,
      "Do": 3555,
      "Museum": 3556,
      "Six": 3557,
      "pson": 3558,
      "arc": 3559,
      "beat": 3560,
      "something": 3561,
      "ensity": 3562,
      "Meyer": 3563,
      "stitut": 3564,
      "Jackson": 3565,
      "nuclear": 3566,
      "target": 3567,
      "College": 3568,
      "Hum": 3569,
      "Nations": 3570,
      "Sol": 3571,
      "rical": 3572,
      "ón": 3573,
      "anas": 3574,
      "vey": 3575,
      "Their": 3576,
      "olf": 3577,
      "estival": 3578,
      "gue": 3579,
      "Through": 3580,
      "render": 3581,
      "highly": 3582,
      "Sea": 3583,
      "attacked": 3584,
      "promin": 3585,
      "attempts": 3586,
      "performances": 3587,
      "types": 3588,
      "morning": 3589,
      "strength": 3590,
      "investig": 3591,
      "responsible": 3592,
      "Ill": 3593,
      "Os": 3594,
      "Ty": 3595,
      "aspect": 3596,
      "orders": 3597,
      "stra": 3598,
      "dise": 3599,
      "metal": 3600,
      "issues": 3601,
      "Prince": 3602,
      "individual": 3603,
      "immediately": 3604,
      "AI": 3605,
      "Sur": 3606,
      "bid": 3607,
      "pil": 3608,
      "wal": 3609,
      "removed": 3610,
      "ademy": 3611,
      "beer": 3612,
      "uries": 3613,
      "artist": 3614,
      "anta": 3615,
      "owned": 3616,
      "scoring": 3617,
      "severe": 3618,
      "itting": 3619,
      "distin": 3620,
      "distance": 3621,
      "advan": 3622,
      "situation": 3623,
      "Pennsylvania": 3624,
      "piano": 3625,
      "Nico": 3626,
      "hic": 3627,
      "mouth": 3628,
      "inside": 3629,
      "selected": 3630,
      "vement": 3631,
      "artillery": 3632,
      "recover": 3633,
      "variety": 3634,
      "advance": 3635,
      "studies": 3636,
      "Scotland": 3637,
      "needed": 3638,
      "offered": 3639,
      "peaked": 3640,
      "Jose": 3641,
      "Live": 3642,
      "Minn": 3643,
      "utch": 3644,
      "Chris": 3645,
      "Storm": 3646,
      "means": 3647,
      "1991": 3648,
      "observ": 3649,
      "singer": 3650,
      "thens": 3651,
      "headquarters": 3652,
      "countries": 3653,
      "attempted": 3654,
      "copies": 3655,
      "murder": 3656,
      "Che": 3657,
      "Cross": 3658,
      "Los": 3659,
      "Pat": 3660,
      "Water": 3661,
      "plant": 3662,
      "shire": 3663,
      "China": 3664,
      "princi": 3665,
      "creation": 3666,
      "archite": 3667,
      "casual": 3668,
      "Club": 3669,
      "horse": 3670,
      "respectively": 3671,
      "MS": 3672,
      "Out": 3673,
      "lb": 3674,
      "itude": 3675,
      "acing": 3676,
      "ili": 3677,
      "cting": 3678,
      "mole": 3679,
      "umb": 3680,
      "ousand": 3681,
      "symb": 3682,
      "higher": 3683,
      "describes": 3684,
      "rule": 3685,
      "Both": 3686,
      "widely": 3687,
      "Department": 3688,
      "touchdown": 3689,
      "Tem": 3690,
      "hanna": 3691,
      "ti": 3692,
      "andid": 3693,
      "semi": 3694,
      "adium": 3695,
      "1992": 3696,
      "observed": 3697,
      "appearances": 3698,
      "missed": 3699,
      "powerful": 3700,
      "completely": 3701,
      "sexual": 3702,
      "Corps": 3703,
      "Braa": 3704,
      "heavily": 3705,
      "6th": 3706,
      "Are": 3707,
      "La": 3708,
      "bour": 3709,
      "bank": 3710,
      "crow": 3711,
      "pick": 3712,
      "tic": 3713,
      "xenon": 3714,
      "adult": 3715,
      "below": 3716,
      "resc": 3717,
      "managed": 3718,
      "quality": 3719,
      "acting": 3720,
      "portun": 3721,
      "1994": 3722,
      "chester": 3723,
      "middle": 3724,
      "meeting": 3725,
      "reduced": 3726,
      "relief": 3727,
      "Alex": 3728,
      "Football": 3729,
      "BA": 3730,
      "bon": 3731,
      "cis": 3732,
      "iny": 3733,
      "esota": 3734,
      "affected": 3735,
      "sixth": 3736,
      "resulted": 3737,
      "matches": 3738,
      "Like": 3739,
      "ricket": 3740,
      "concluded": 3741,
      "audience": 3742,
      "parents": 3743,
      "Minnesota": 3744,
      "34": 3745,
      "Fin": 3746,
      "Time": 3747,
      "alo": 3748,
      "true": 3749,
      "akapo": 3750,
      "Force": 3751,
      "inkel": 3752,
      "activities": 3753,
      "Offic": 3754,
      "Victor": 3755,
      "Cal": 3756,
      "Center": 3757,
      "Hot": 3758,
      "Lan": 3759,
      "Young": 3760,
      "gain": 3761,
      "stating": 3762,
      "oud": 3763,
      "contemporary": 3764,
      "opportun": 3765,
      "award": 3766,
      "struction": 3767,
      "words": 3768,
      "Townsend": 3769,
      "revealed": 3770,
      "houses": 3771,
      "Rosebery": 3772,
      "Southern": 3773,
      "Del": 3774,
      "Fre": 3775,
      "ging": 3776,
      "mile": 3777,
      "rect": 3778,
      "secret": 3779,
      "residents": 3780,
      "opin": 3781,
      "sole": 3782,
      "eway": 3783,
      "vised": 3784,
      "write": 3785,
      "150": 3786,
      "Colon": 3787,
      "refused": 3788,
      "levels": 3789,
      "declared": 3790,
      "separate": 3791,
      "trees": 3792,
      "viron": 3793,
      "Italian": 3794,
      "Finkel": 3795,
      "Long": 3796,
      "Sto": 3797,
      "Sir": 3798,
      "drew": 3799,
      "eu": 3800,
      "za": 3801,
      "armed": 3802,
      "ado": 3803,
      "log": 3804,
      "blue": 3805,
      "wealth": 3806,
      "annel": 3807,
      "drum": 3808,
      "1970": 3809,
      "Because": 3810,
      "faced": 3811,
      "stitution": 3812,
      "Walpole": 3813,
      "question": 3814,
      "photo": 3815,
      "Hawai": 3816,
      "Meyerbeer": 3817,
      "Finkelstein": 3818,
      "Dou": 3819,
      "Tessa": 3820,
      "core": 3821,
      "rated": 3822,
      "spl": 3823,
      "today": 3824,
      "university": 3825,
      "peror": 3826,
      "grand": 3827,
      "aware": 3828,
      "eval": 3829,
      "recent": 3830,
      "rane": 3831,
      "athus": 3832,
      "offensive": 3833,
      "background": 3834,
      "featuring": 3835,
      "Shiva": 3836,
      "carry": 3837,
      "historical": 3838,
      "typically": 3839,
      "contrast": 3840,
      "Met": 3841,
      "Smith": 3842,
      "Wel": 3843,
      "Yue": 3844,
      "fast": 3845,
      "pun": 3846,
      "rout": 3847,
      "icts": 3848,
      "iron": 3849,
      "eves": 3850,
      "conditions": 3851,
      "elected": 3852,
      "hands": 3853,
      "impact": 3854,
      "Society": 3855,
      "Nicole": 3856,
      "bing": 3857,
      "rhy": 3858,
      "tax": 3859,
      "alty": 3860,
      "becomes": 3861,
      "peace": 3862,
      "excl": 3863,
      "worth": 3864,
      "assault": 3865,
      "attention": 3866,
      "weaken": 3867,
      "mainly": 3868,
      "efforts": 3869,
      "organized": 3870,
      "initi": 3871,
      "sites": 3872,
      "Service": 3873,
      "Jim": 3874,
      "Mem": 3875,
      "Ram": 3876,
      "paper": 3877,
      "rum": 3878,
      "scient": 3879,
      "wear": 3880,
      "ental": 3881,
      "chor": 3882,
      "vehic": 3883,
      "prise": 3884,
      "charge": 3885,
      "strugg": 3886,
      "produce": 3887,
      "specim": 3888,
      "controver": 3889,
      "divided": 3890,
      "Highway": 3891,
      "Braathens": 3892,
      "Civ": 3893,
      "Ven": 3894,
      "brown": 3895,
      "corn": 3896,
      "mat": 3897,
      "rich": 3898,
      "sail": 3899,
      "sense": 3900,
      "ufact": 3901,
      "incorpor": 3902,
      "isl": 3903,
      "actually": 3904,
      "calling": 3905,
      "titles": 3906,
      "Hait": 3907,
      "mentioned": 3908,
      "Adam": 3909,
      "Dire": 3910,
      "Nes": 3911,
      "bury": 3912,
      "sci": 3913,
      "roles": 3914,
      "istics": 3915,
      "strated": 3916,
      "color": 3917,
      "1990": 3918,
      "seasons": 3919,
      "cannot": 3920,
      "struck": 3921,
      "Johnson": 3922,
      "defend": 3923,
      "Blue": 3924,
      "extreme": 3925,
      "combat": 3926,
      "tellig": 3927,
      "accepted": 3928,
      "Green": 3929,
      "achieved": 3930,
      "evolution": 3931,
      "Court": 3932,
      "Illino": 3933,
      "5th": 3934,
      "border": 3935,
      "pul": 3936,
      "winter": 3937,
      "instr": 3938,
      "ils": 3939,
      "180": 3940,
      "athlet": 3941,
      "tainment": 3942,
      "tower": 3943,
      "protein": 3944,
      "Portugu": 3945,
      "vocal": 3946,
      "Vietnam": 3947,
      "practice": 3948,
      "deliver": 3949,
      "Captain": 3950,
      "girl": 3951,
      "advantage": 3952,
      "Portuguese": 3953,
      "4th": 3954,
      "Jul": 3955,
      "Van": 3956,
      "cam": 3957,
      "hed": 3958,
      "thousand": 3959,
      "sec": 3960,
      "Indu": 3961,
      "ements": 3962,
      "fiction": 3963,
      "iving": 3964,
      "finals": 3965,
      "Thunder": 3966,
      "forest": 3967,
      "flank": 3968,
      "ledge": 3969,
      "helm": 3970,
      "Fey": 3971,
      "Academy": 3972,
      "primarily": 3973,
      "Soviet": 3974,
      "Fur": 3975,
      "Rad": 3976,
      "Tod": 3977,
      "Up": 3978,
      "cere": 3979,
      "dition": 3980,
      "push": 3981,
      "paid": 3982,
      "infantry": 3983,
      "lif": 3984,
      "spread": 3985,
      "1986": 3986,
      "ribution": 3987,
      "twenty": 3988,
      "slightly": 3989,
      "analys": 3990,
      "architect": 3991,
      "Civil": 3992,
      "Ka": 3993,
      "Prote": 3994,
      "Sal": 3995,
      "ec": 3996,
      "sales": 3997,
      "vation": 3998,
      "concent": 3999,
      "expressed": 4000,
      "scale": 4001,
      "Engine": 4002,
      "sister": 4003,
      "rights": 4004,
      "blood": 4005,
      "inches": 4006,
      "extensive": 4007,
      "Ben": 4008,
      "Mog": 4009,
      "Ocean": 4010,
      "mist": 4011,
      "oo": 4012,
      "ulpt": 4013,
      "die": 4014,
      "neigh": 4015,
      "estic": 4016,
      "serve": 4017,
      "preser": 4018,
      "sculpt": 4019,
      "shell": 4020,
      "colour": 4021,
      "showed": 4022,
      "officer": 4023,
      "transl": 4024,
      "Group": 4025,
      "protest": 4026,
      "arent": 4027,
      "ceeded": 4028,
      "commissioned": 4029,
      "Horse": 4030,
      "Louis": 4031,
      "Emp": 4032,
      "Little": 4033,
      "Tint": 4034,
      "Zhou": 4035,
      "nic": 4036,
      "pup": 4037,
      "yn": 4038,
      "ulf": 4039,
      "shore": 4040,
      "clim": 4041,
      "ounds": 4042,
      "visions": 4043,
      "Secret": 4044,
      "defense": 4045,
      "county": 4046,
      "battalion": 4047,
      "Spain": 4048,
      "window": 4049,
      "looking": 4050,
      "combined": 4051,
      "Varanas": 4052,
      "Welsh": 4053,
      "Empire": 4054,
      "Tintin": 4055,
      "Varanasi": 4056,
      "Government": 4057,
      "Pit": 4058,
      "bitt": 4059,
      "folk": 4060,
      "mes": 4061,
      "nh": 4062,
      "ensi": 4063,
      "sust": 4064,
      "rance": 4065,
      "Though": 4066,
      "themes": 4067,
      "iction": 4068,
      "diff": 4069,
      "titled": 4070,
      "Andrew": 4071,
      "cultural": 4072,
      "represented": 4073,
      "fruit": 4074,
      "onymous": 4075,
      "casualties": 4076,
      "Nesbitt": 4077,
      "Bol": 4078,
      "Oda": 4079,
      "bat": 4080,
      "hi": 4081,
      "hu": 4082,
      "lers": 4083,
      "ram": 4084,
      "sides": 4085,
      "square": 4086,
      "ancient": 4087,
      "recomm": 4088,
      "enathus": 4089,
      "alone": 4090,
      "ems": 4091,
      "grass": 4092,
      "avoid": 4093,
      "osen": 4094,
      "spect": 4095,
      "founded": 4096,
      "continues": 4097,
      "castle": 4098,
      "says": 4099,
      "Major": 4100,
      "street": 4101,
      "earliest": 4102,
      "mountain": 4103,
      "Eva": 4104,
      "Angeles": 4105,
      "excav": 4106,
      "Ceres": 4107,
      "newspaper": 4108,
      "vironment": 4109,
      "Odaenathus": 4110,
      "42": 4111,
      "9th": 4112,
      "SR": 4113,
      "Turn": 4114,
      "jun": 4115,
      "thir": 4116,
      "omer": 4117,
      "1920": 4118,
      "artists": 4119,
      "manufact": 4120,
      "pret": 4121,
      "Commun": 4122,
      "doing": 4123,
      "maxim": 4124,
      "identified": 4125,
      "pedo": 4126,
      "officially": 4127,
      "places": 4128,
      "northwest": 4129,
      "resulting": 4130,
      "function": 4131,
      "Francis": 4132,
      "authorities": 4133,
      "influenced": 4134,
      "DuMont": 4135,
      "flooding": 4136,
      "Olympic": 4137,
      "adopted": 4138,
      "Sarnia": 4139,
      "disease": 4140,
      "ceremon": 4141,
      "Bul": 4142,
      "Dam": 4143,
      "Er": 4144,
      "MD": 4145,
      "Tran": 4146,
      "Way": 4147,
      "wa": 4148,
      "alle": 4149,
      "itation": 4150,
      "tru": 4151,
      "havi": 4152,
      "18th": 4153,
      "anning": 4154,
      "captain": 4155,
      "reports": 4156,
      "Book": 4157,
      "basis": 4158,
      "Simpson": 4159,
      "Illinois": 4160,
      "Bet": 4161,
      "Home": 4162,
      "Rob": 4163,
      "cers": 4164,
      "ker": 4165,
      "repe": 4166,
      "toward": 4167,
      "ionally": 4168,
      "perman": 4169,
      "raid": 4170,
      "letters": 4171,
      "southeast": 4172,
      "Wilhelm": 4173,
      "Manchester": 4174,
      "Week": 4175,
      "broken": 4176,
      "apparent": 4177,
      "soundtrack": 4178,
      "Apple": 4179,
      "Records": 4180,
      "tournament": 4181,
      "Mogad": 4182,
      "7th": 4183,
      "Burn": 4184,
      "Fred": 4185,
      "Pen": 4186,
      "Tele": 4187,
      "Wash": 4188,
      "kakapo": 4189,
      "lic": 4190,
      "rush": 4191,
      "reign": 4192,
      "encour": 4193,
      "ications": 4194,
      "rot": 4195,
      "advert": 4196,
      "delay": 4197,
      "oppon": 4198,
      "mob": 4199,
      "exhib": 4200,
      "workers": 4201,
      "alongside": 4202,
      "Form": 4203,
      "osaurus": 4204,
      "torpedo": 4205,
      "relatively": 4206,
      "Washington": 4207,
      "Cast": 4208,
      "Lar": 4209,
      "Night": 4210,
      "patter": 4211,
      "yellow": 4212,
      "iled": 4213,
      "chair": 4214,
      "older": 4215,
      "agg": 4216,
      "otional": 4217,
      "ression": 4218,
      "losing": 4219,
      "attended": 4220,
      "content": 4221,
      "contain": 4222,
      "mechan": 4223,
      "mond": 4224,
      "direction": 4225,
      "popul": 4226,
      "1988": 4227,
      "tried": 4228,
      "capture": 4229,
      "individuals": 4230,
      "narrow": 4231,
      "transferred": 4232,
      "cadmium": 4233,
      "Oma": 4234,
      "Post": 4235,
      "cities": 4236,
      "farm": 4237,
      "mess": 4238,
      "ovic": 4239,
      "wick": 4240,
      "edition": 4241,
      "abama": 4242,
      "umn": 4243,
      "proved": 4244,
      "contact": 4245,
      "Alabama": 4246,
      "effort": 4247,
      "News": 4248,
      "ressed": 4249,
      "require": 4250,
      "royal": 4251,
      "Clark": 4252,
      "officials": 4253,
      "measure": 4254,
      "dedicated": 4255,
      "surrounding": 4256,
      "physical": 4257,
      "determined": 4258,
      "Omaha": 4259,
      "Four": 4260,
      "candid": 4261,
      "atives": 4262,
      "energy": 4263,
      "ises": 4264,
      "height": 4265,
      "union": 4266,
      "opposed": 4267,
      "lives": 4268,
      "rainfall": 4269,
      "eye": 4270,
      "Middle": 4271,
      "conflict": 4272,
      "53": 4273,
      "Sen": 4274,
      "zed": 4275,
      "restor": 4276,
      "adel": 4277,
      "dete": 4278,
      "uled": 4279,
      "illu": 4280,
      "ishu": 4281,
      "timore": 4282,
      "intensity": 4283,
      "follows": 4284,
      "1960s": 4285,
      "designated": 4286,
      "Mean": 4287,
      "shortly": 4288,
      "Perón": 4289,
      "focus": 4290,
      "possibly": 4291,
      "Helms": 4292,
      "financial": 4293,
      "Mogadishu": 4294,
      "Fant": 4295,
      "Sch": 4296,
      "wild": 4297,
      "your": 4298,
      "images": 4299,
      "lip": 4300,
      "Innis": 4301,
      "shape": 4302,
      "bles": 4303,
      "phen": 4304,
      "door": 4305,
      "1980s": 4306,
      "1940": 4307,
      "1964": 4308,
      "simply": 4309,
      "society": 4310,
      "Edward": 4311,
      "gradu": 4312,
      "sources": 4313,
      "security": 4314,
      "science": 4315,
      "maximum": 4316,
      "Di": 4317,
      "Rh": 4318,
      "iel": 4319,
      "kept": 4320,
      "uzz": 4321,
      "voy": 4322,
      "revol": 4323,
      "oft": 4324,
      "comedy": 4325,
      "Independ": 4326,
      "emphas": 4327,
      "ordin": 4328,
      "serving": 4329,
      "spot": 4330,
      "dissip": 4331,
      "visited": 4332,
      "phil": 4333,
      "orses": 4334,
      "Assembly": 4335,
      "albums": 4336,
      "Origin": 4337,
      "successfully": 4338,
      "potential": 4339,
      "Histor": 4340,
      "journal": 4341,
      "couple": 4342,
      "necessary": 4343,
      "Joseph": 4344,
      "Jour": 4345,
      "Jup": 4346,
      "Kent": 4347,
      "ares": 4348,
      "kes": 4349,
      "kare": 4350,
      "sac": 4351,
      "wen": 4352,
      "rem": 4353,
      "seek": 4354,
      "igan": 4355,
      "movie": 4356,
      "boat": 4357,
      "Commission": 4358,
      "buried": 4359,
      "pieces": 4360,
      "spirit": 4361,
      "argued": 4362,
      "McCall": 4363,
      "Fleet": 4364,
      "46": 4365,
      "Bu": 4366,
      "Dist": 4367,
      "Fam": 4368,
      "happ": 4369,
      "rating": 4370,
      "heart": 4371,
      "ada": 4372,
      "behavi": 4373,
      "shap": 4374,
      "boats": 4375,
      "guest": 4376,
      "Argent": 4377,
      "suppl": 4378,
      "depth": 4379,
      "passes": 4380,
      "domestic": 4381,
      "grew": 4382,
      "suggests": 4383,
      "authority": 4384,
      "management": 4385,
      "projects": 4386,
      "Hamels": 4387,
      "PlayStation": 4388,
      "Rihanna": 4389,
      "Baltimore": 4390,
      "600": 4391,
      "dro": 4392,
      "dut": 4393,
      "gn": 4394,
      "gained": 4395,
      "museum": 4396,
      "nast": 4397,
      "paint": 4398,
      "rub": 4399,
      "wave": 4400,
      "inth": 4401,
      "entrance": 4402,
      "belong": 4403,
      "unique": 4404,
      "consecut": 4405,
      "twice": 4406,
      "weak": 4407,
      "legisl": 4408,
      "placement": 4409,
      "causing": 4410,
      "letter": 4411,
      "cases": 4412,
      "structures": 4413,
      "frag": 4414,
      "criticized": 4415,
      "invas": 4416,
      "Valley": 4417,
      "Bowl": 4418,
      "ultimately": 4419,
      "website": 4420,
      "65": 4421,
      "Cra": 4422,
      "Dest": 4423,
      "cat": 4424,
      "hill": 4425,
      "vince": 4426,
      "edkare": 4427,
      "verted": 4428,
      "propos": 4429,
      "neut": 4430,
      "share": 4431,
      "extra": 4432,
      "containing": 4433,
      "rence": 4434,
      "condition": 4435,
      "vessel": 4436,
      "Conf": 4437,
      "vention": 4438,
      "results": 4439,
      "Palest": 4440,
      "debuted": 4441,
      "homes": 4442,
      "Djedkare": 4443,
      "negative": 4444,
      "Jupiter": 4445,
      "Der": 4446,
      "Def": 4447,
      "kg": 4448,
      "spring": 4449,
      "chief": 4450,
      "chosen": 4451,
      "deploy": 4452,
      "mocr": 4453,
      "artic": 4454,
      "actors": 4455,
      "premi": 4456,
      "foreign": 4457,
      "obtain": 4458,
      "1947": 4459,
      "Constant": 4460,
      "Short": 4461,
      "passing": 4462,
      "defence": 4463,
      "defensive": 4464,
      "battles": 4465,
      "hospital": 4466,
      "favour": 4467,
      "Torres": 4468,
      "wounded": 4469,
      "51": 4470,
      "DV": 4471,
      "Horn": 4472,
      "Hib": 4473,
      "Kore": 4474,
      "Lis": 4475,
      "mic": 4476,
      "oil": 4477,
      "rejected": 4478,
      "else": 4479,
      "brigade": 4480,
      "bute": 4481,
      "normal": 4482,
      "plement": 4483,
      "reaching": 4484,
      "reference": 4485,
      "graphic": 4486,
      "holds": 4487,
      "Eastern": 4488,
      "borough": 4489,
      "mounted": 4490,
      "animal": 4491,
      "growing": 4492,
      "connected": 4493,
      "granted": 4494,
      "abandoned": 4495,
      "prominent": 4496,
      "consecutive": 4497,
      "DVD": 4498,
      "64": 4499,
      "Kh": 4500,
      "Sil": 4501,
      "Tru": 4502,
      "ban": 4503,
      "din": 4504,
      "eigh": 4505,
      "fish": 4506,
      "beach": 4507,
      "quake": 4508,
      "iple": 4509,
      "Ann": 4510,
      "temple": 4511,
      "aired": 4512,
      "phy": 4513,
      "colony": 4514,
      "Once": 4515,
      "saur": 4516,
      "therefore": 4517,
      "1941": 4518,
      "operated": 4519,
      "organization": 4520,
      "claims": 4521,
      "cells": 4522,
      "currently": 4523,
      "Scottish": 4524,
      "Forest": 4525,
      "confirmed": 4526,
      "Applewhite": 4527,
      "Bank": 4528,
      "cies": 4529,
      "gam": 4530,
      "alleg": 4531,
      "Chap": 4532,
      "iana": 4533,
      "phia": 4534,
      "regions": 4535,
      "singles": 4536,
      "seconds": 4537,
      "1987": 4538,
      "student": 4539,
      "broke": 4540,
      "Airport": 4541,
      "model": 4542,
      "independent": 4543,
      "symbol": 4544,
      "adelphia": 4545,
      "43": 4546,
      "Big": 4547,
      "Cre": 4548,
      "GA": 4549,
      "Isa": 4550,
      "Ra": 4551,
      "Writ": 4552,
      "ahead": 4553,
      "bud": 4554,
      "eth": 4555,
      "intellig": 4556,
      "enemy": 4557,
      "ingu": 4558,
      "ilies": 4559,
      "advent": 4560,
      "chance": 4561,
      "imony": 4562,
      "Institute": 4563,
      "gency": 4564,
      "1970s": 4565,
      "famous": 4566,
      "controlled": 4567,
      "solo": 4568,
      "explained": 4569,
      "planet": 4570,
      "collabor": 4571,
      "seems": 4572,
      "nominated": 4573,
      "Egyptian": 4574,
      "temperature": 4575,
      "equipment": 4576,
      "moment": 4577,
      "analysis": 4578,
      "95": 4579,
      "BBC": 4580,
      "Baby": 4581,
      "Due": 4582,
      "FE": 4583,
      "Greek": 4584,
      "Kar": 4585,
      "Pop": 4586,
      "branch": 4587,
      "bishop": 4588,
      "lane": 4589,
      "males": 4590,
      "tank": 4591,
      "resol": 4592,
      "prop": 4593,
      "osop": 4594,
      "newly": 4595,
      "element": 4596,
      "1984": 4597,
      "1989": 4598,
      "1972": 4599,
      "Before": 4600,
      "laid": 4601,
      "returning": 4602,
      "supporting": 4603,
      "versions": 4604,
      "knowledge": 4605,
      "growth": 4606,
      "problem": 4607,
      "SAFE": 4608,
      "freeway": 4609,
      "selling": 4610,
      "prepared": 4611,
      "Croatia": 4612,
      "Further": 4613,
      "Bir": 4614,
      "CA": 4615,
      "Card": 4616,
      "Each": 4617,
      "Lew": 4618,
      "Lock": 4619,
      "Ob": 4620,
      "Sky": 4621,
      "fair": 4622,
      "lap": 4623,
      "ror": 4624,
      "smo": 4625,
      "rear": 4626,
      "repair": 4627,
      "arms": 4628,
      "tomb": 4629,
      "unknown": 4630,
      "uten": 4631,
      "tran": 4632,
      "fired": 4633,
      "mind": 4634,
      "1985": 4635,
      "pursu": 4636,
      "Mike": 4637,
      "employed": 4638,
      "increasingly": 4639,
      "HMS": 4640,
      "dates": 4641,
      "fres": 4642,
      "gi": 4643,
      "ires": 4644,
      "rative": 4645,
      "tun": 4646,
      "tact": 4647,
      "theory": 4648,
      "eds": 4649,
      "edar": 4650,
      "environment": 4651,
      "agan": 4652,
      "tex": 4653,
      "trail": 4654,
      "commonly": 4655,
      "speak": 4656,
      "writes": 4657,
      "ideas": 4658,
      "1960": 4659,
      "Cardiff": 4660,
      "council": 4661,
      "breeding": 4662,
      "Barrow": 4663,
      "historian": 4664,
      "believe": 4665,
      "burns": 4666,
      "Operation": 4667,
      "settlement": 4668,
      "120": 4669,
      "Abu": 4670,
      "Dis": 4671,
      "Field": 4672,
      "More": 4673,
      "Ox": 4674,
      "cricket": 4675,
      "mort": 4676,
      "mical": 4677,
      "pack": 4678,
      "ono": 4679,
      "atmo": 4680,
      "stations": 4681,
      "stood": 4682,
      "arrest": 4683,
      "shif": 4684,
      "perfect": 4685,
      "herself": 4686,
      "singing": 4687,
      "1944": 4688,
      "roads": 4689,
      "prompt": 4690,
      "systems": 4691,
      "females": 4692,
      "consisted": 4693,
      "Michigan": 4694,
      "experienced": 4695,
      "Philadelphia": 4696,
      "property": 4697,
      "economic": 4698,
      "literature": 4699,
      "advanced": 4700,
      "atmosp": 4701,
      "96": 4702,
      "Cle": 4703,
      "Even": 4704,
      "Far": 4705,
      "Gall": 4706,
      "Jon": 4707,
      "NH": 4708,
      "Never": 4709,
      "Sum": 4710,
      "fox": 4711,
      "hang": 4712,
      "master": 4713,
      "ras": 4714,
      "tur": 4715,
      "alions": 4716,
      "deities": 4717,
      "umber": 4718,
      "Child": 4719,
      "intensi": 4720,
      "ranged": 4721,
      "weather": 4722,
      "Only": 4723,
      "parliament": 4724,
      "failure": 4725,
      "Mounted": 4726,
      "Keats": 4727,
      "Swed": 4728,
      "dropped": 4729,
      "maintained": 4730,
      "happen": 4731,
      "kilomet": 4732,
      "Meanwhile": 4733,
      "Dutch": 4734,
      "Rol": 4735,
      "glo": 4736,
      "kin": 4737,
      "rise": 4738,
      "sand": 4739,
      "tav": 4740,
      "arrang": 4741,
      "rie": 4742,
      "oppos": 4743,
      "loy": 4744,
      "landfall": 4745,
      "serves": 4746,
      "compar": 4747,
      "awards": 4748,
      "evil": 4749,
      "1990s": 4750,
      "icks": 4751,
      "filmed": 4752,
      "leader": 4753,
      "ologist": 4754,
      "servation": 4755,
      "killing": 4756,
      "risk": 4757,
      "strike": 4758,
      "Addition": 4759,
      "popularity": 4760,
      "flying": 4761,
      "honor": 4762,
      "collap": 4763,
      "injury": 4764,
      "pitched": 4765,
      "frequently": 4766,
      "Mass": 4767,
      "Nathan": 4768,
      "Slam": 4769,
      "Tu": 4770,
      "Vide": 4771,
      "bul": 4772,
      "horses": 4773,
      "tional": 4774,
      "wit": 4775,
      "thr": 4776,
      "anz": 4777,
      "resem": 4778,
      "aling": 4779,
      "adem": 4780,
      "usual": 4781,
      "elim": 4782,
      "exped": 4783,
      "actress": 4784,
      "Italy": 4785,
      "retired": 4786,
      "families": 4787,
      "value": 4788,
      "km2": 4789,
      "promoted": 4790,
      "humans": 4791,
      "Steve": 4792,
      "Andy": 4793,
      "launch": 4794,
      "urban": 4795,
      "phase": 4796,
      "belief": 4797,
      "Premi": 4798,
      "rapidly": 4799,
      "battery": 4800,
      "weapons": 4801,
      "nasty": 4802,
      "budget": 4803,
      "Ali": 4804,
      "Good": 4805,
      "Tim": 4806,
      "federal": 4807,
      "pict": 4808,
      "yle": 4809,
      "asc": 4810,
      "lection": 4811,
      "decre": 4812,
      "imag": 4813,
      "resist": 4814,
      "odon": 4815,
      "Head": 4816,
      "creating": 4817,
      "Album": 4818,
      "Americans": 4819,
      "Conference": 4820,
      "publication": 4821,
      "organis": 4822,
      "significantly": 4823,
      "suffic": 4824,
      "religion": 4825,
      "recognized": 4826,
      "Minister": 4827,
      "multiple": 4828,
      "cougar": 4829,
      "straight": 4830,
      "invasion": 4831,
      "Final": 4832,
      "Gir": 4833,
      "Line": 4834,
      "Mort": 4835,
      "SP": 4836,
      "Sor": 4837,
      "data": 4838,
      "matter": 4839,
      "sought": 4840,
      "asure": 4841,
      "iles": 4842,
      "oms": 4843,
      "lying": 4844,
      "chose": 4845,
      "prot": 4846,
      "attend": 4847,
      "regarded": 4848,
      "ify": 4849,
      "producers": 4850,
      "highlight": 4851,
      "publish": 4852,
      "volume": 4853,
      "marks": 4854,
      "domin": 4855,
      "restaur": 4856,
      "allows": 4857,
      "asket": 4858,
      "Max": 4859,
      "seventh": 4860,
      "agreement": 4861,
      "walls": 4862,
      "strengthen": 4863,
      "haps": 4864,
      "scheduled": 4865,
      "aspects": 4866,
      "56": 4867,
      "Jef": 4868,
      "Rog": 4869,
      "Si": 4870,
      "Ve": 4871,
      "cust": 4872,
      "catch": 4873,
      "tree": 4874,
      "theless": 4875,
      "reaction": 4876,
      "iced": 4877,
      "accompan": 4878,
      "agric": 4879,
      "astic": 4880,
      "landing": 4881,
      "ached": 4882,
      "crete": 4883,
      "views": 4884,
      "1981": 4885,
      "starts": 4886,
      "promotion": 4887,
      "industri": 4888,
      "namese": 4889,
      "Vietnamese": 4890,
      "Congress": 4891,
      "filled": 4892,
      "nucleus": 4893,
      "sustained": 4894,
      "agricult": 4895,
      "41": 4896,
      "Bost": 4897,
      "Gulf": 4898,
      "Hart": 4899,
      "Haven": 4900,
      "Op": 4901,
      "fought": 4902,
      "labor": 4903,
      "tin": 4904,
      "uan": 4905,
      "altar": 4906,
      "isy": 4907,
      "beaut": 4908,
      "otes": 4909,
      "rival": 4910,
      "strate": 4911,
      "Stan": 4912,
      "computer": 4913,
      "bra": 4914,
      "note": 4915,
      "miner": 4916,
      "izing": 4917,
      "simple": 4918,
      "Steven": 4919,
      "Among": 4920,
      "Cambodi": 4921,
      "occupied": 4922,
      "scholar": 4923,
      "Thunderbirds": 4924,
      "philosop": 4925,
      "Video": 4926,
      "55": 4927,
      "Ath": 4928,
      "Ban": 4929,
      "Crit": 4930,
      "Eli": 4931,
      "Fl": 4932,
      "Greg": 4933,
      "Mat": 4934,
      "Men": 4935,
      "gs": 4936,
      "gather": 4937,
      "govern": 4938,
      "nur": 4939,
      "oration": 4940,
      "outer": 4941,
      "aine": 4942,
      "emb": 4943,
      "firm": 4944,
      "awa": 4945,
      "contained": 4946,
      "guan": 4947,
      "underground": 4948,
      "supply": 4949,
      "Brig": 4950,
      "trial": 4951,
      "1939": 4952,
      "facilities": 4953,
      "teenth": 4954,
      "victim": 4955,
      "drive": 4956,
      "virt": 4957,
      "Athlet": 4958,
      "Dun": 4959,
      "Down": 4960,
      "Festival": 4961,
      "Gord": 4962,
      "Nich": 4963,
      "Naz": 4964,
      "Public": 4965,
      "Revolution": 4966,
      "fat": 4967,
      "gree": 4968,
      "task": 4969,
      "recon": 4970,
      "ening": 4971,
      "stages": 4972,
      "degree": 4973,
      "agement": 4974,
      "afety": 4975,
      "contributed": 4976,
      "Anth": 4977,
      "save": 4978,
      "insula": 4979,
      "1942": 4980,
      "clean": 4981,
      "collected": 4982,
      "reflect": 4983,
      "Pho": 4984,
      "improve": 4985,
      "executive": 4986,
      "bottom": 4987,
      "Oxford": 4988,
      "Gordon": 4989,
      "Nichol": 4990,
      "130": 4991,
      "8th": 4992,
      "97": 4993,
      "Den": 4994,
      "Friend": 4995,
      "NBA": 4996,
      "cu": 4997,
      "cited": 4998,
      "cake": 4999,
      "ero": 5000,
      "1918": 5001,
      "composition": 5002,
      "moves": 5003,
      "extr": 5004,
      "illo": 5005,
      "owners": 5006,
      "ween": 5007,
      "minim": 5008,
      "angers": 5009,
      "17th": 5010,
      "opera": 5011,
      "Juan": 5012,
      "fields": 5013,
      "kills": 5014,
      "effective": 5015,
      "Coast": 5016,
      "animals": 5017,
      "entirely": 5018,
      "sports": 5019,
      "improved": 5020,
      "subsequent": 5021,
      "multi": 5022,
      "1950s": 5023,
      "Entertainment": 5024,
      "Studios": 5025,
      "beyond": 5026,
      "Turner": 5027,
      "Between": 5028,
      "shaped": 5029,
      "Crazy": 5030,
      "utenant": 5031,
      "Premier": 5032,
      "94": 5033,
      "Fish": 5034,
      "Mario": 5035,
      "PA": 5036,
      "Ru": 5037,
      "Ry": 5038,
      "var": 5039,
      "thur": 5040,
      "edding": 5041,
      "atop": 5042,
      "icip": 5043,
      "plat": 5044,
      "umes": 5045,
      "train": 5046,
      "notable": 5047,
      "prising": 5048,
      "recently": 5049,
      "finish": 5050,
      "disp": 5051,
      "coal": 5052,
      "Alli": 5053,
      "Arthur": 5054,
      "draft": 5055,
      "medical": 5056,
      "sses": 5057,
      "capable": 5058,
      "ropium": 5059,
      "1968": 5060,
      "1969": 5061,
      "ashion": 5062,
      "gives": 5063,
      "Boise": 5064,
      "finding": 5065,
      "missions": 5066,
      "Muslim": 5067,
      "Williams": 5068,
      "gradually": 5069,
      "responded": 5070,
      "Today": 5071,
      "Lewis": 5072,
      "kilometres": 5073,
      "Boston": 5074,
      "700": 5075,
      "Cold": 5076,
      "Gard": 5077,
      "Governor": 5078,
      "Jain": 5079,
      "Well": 5080,
      "dan": 5081,
      "egg": 5082,
      "nes": 5083,
      "rig": 5084,
      "thew": 5085,
      "ert": 5086,
      "assu": 5087,
      "iments": 5088,
      "aret": 5089,
      "antimony": 5090,
      "ender": 5091,
      "secondary": 5092,
      "1975": 5093,
      "headed": 5094,
      "distingu": 5095,
      "Class": 5096,
      "People": 5097,
      "apping": 5098,
      "historic": 5099,
      "programs": 5100,
      "Russian": 5101,
      "Martin": 5102,
      "expanded": 5103,
      "CE": 5104,
      "Han": 5105,
      "Jes": 5106,
      "Lie": 5107,
      "Rail": 5108,
      "Upon": 5109,
      "sort": 5110,
      "stable": 5111,
      "isol": 5112,
      "items": 5113,
      "heard": 5114,
      "unte": 5115,
      "conve": 5116,
      "ria": 5117,
      "presents": 5118,
      "display": 5119,
      "centuries": 5120,
      "12th": 5121,
      "Democr": 5122,
      "1965": 5123,
      "1974": 5124,
      "southwest": 5125,
      "campus": 5126,
      "Cole": 5127,
      "finds": 5128,
      "Magazine": 5129,
      "Philip": 5130,
      "System": 5131,
      "goti": 5132,
      "Evita": 5133,
      "possibility": 5134,
      "Turk": 5135,
      "Chel": 5136,
      "Domin": 5137,
      "Ni": 5138,
      "Sat": 5139,
      "daily": 5140,
      "hroom": 5141,
      "naval": 5142,
      "rine": 5143,
      "ánh": 5144,
      "āda": 5145,
      "ardi": 5146,
      "contest": 5147,
      "expen": 5148,
      "asters": 5149,
      "berg": 5150,
      "fictional": 5151,
      "ansas": 5152,
      "mushroom": 5153,
      "decades": 5154,
      "ception": 5155,
      "deaths": 5156,
      "floor": 5157,
      "criticism": 5158,
      "losses": 5159,
      "Commander": 5160,
      "treatment": 5161,
      "independence": 5162,
      "slowly": 5163,
      "History": 5164,
      "classified": 5165,
      "Khánh": 5166,
      "Avenue": 5167,
      "Bas": 5168,
      "Crown": 5169,
      "Fox": 5170,
      "Jurch": 5171,
      "Kir": 5172,
      "Mah": 5173,
      "NL": 5174,
      "Raf": 5175,
      "Rome": 5176,
      "Ul": 5177,
      "ech": 5178,
      "revi": 5179,
      "stock": 5180,
      "trou": 5181,
      "acks": 5182,
      "Stone": 5183,
      "evin": 5184,
      "anny": 5185,
      "visual": 5186,
      "setting": 5187,
      "myth": 5188,
      "engaged": 5189,
      "reception": 5190,
      "Bridge": 5191,
      "didn": 5192,
      "azz": 5193,
      "layer": 5194,
      "sentence": 5195,
      "Songs": 5196,
      "MacLe": 5197,
      "silver": 5198,
      "purchased": 5199,
      "faith": 5200,
      "Jamal": 5201,
      "policy": 5202,
      "TC": 5203,
      "bility": 5204,
      "dream": 5205,
      "yson": 5206,
      "acres": 5207,
      "adapt": 5208,
      "begun": 5209,
      "lywood": 5210,
      "concrete": 5211,
      "negoti": 5212,
      "acts": 5213,
      "scar": 5214,
      "prefer": 5215,
      "rict": 5216,
      "cool": 5217,
      "End": 5218,
      "1946": 5219,
      "worldwide": 5220,
      "green": 5221,
      "faces": 5222,
      "declined": 5223,
      "rivers": 5224,
      "purpose": 5225,
      "Science": 5226,
      "reasons": 5227,
      "ategory": 5228,
      "Brian": 5229,
      "briefly": 5230,
      "Tennyson": 5231,
      "challeng": 5232,
      "Throughout": 5233,
      "District": 5234,
      "protagon": 5235,
      "800": 5236,
      "Dubl": 5237,
      "IV": 5238,
      "Je": 5239,
      "MTV": 5240,
      "Sus": 5241,
      "UN": 5242,
      "eas": 5243,
      "ote": 5244,
      "perial": 5245,
      "nothing": 5246,
      "Also": 5247,
      "flag": 5248,
      "goes": 5249,
      "160": 5250,
      "adding": 5251,
      "Columb": 5252,
      "organiz": 5253,
      "explo": 5254,
      "Liu": 5255,
      "drawn": 5256,
      "importance": 5257,
      "Simone": 5258,
      "Project": 5259,
      "scription": 5260,
      "incident": 5261,
      "progress": 5262,
      "escape": 5263,
      "exclus": 5264,
      "Dublin": 5265,
      "54": 5266,
      "Cub": 5267,
      "Hy": 5268,
      "Kang": 5269,
      "hired": 5270,
      "map": 5271,
      "editor": 5272,
      "seas": 5273,
      "ura": 5274,
      "usal": 5275,
      "1919": 5276,
      "worship": 5277,
      "Arts": 5278,
      "Leg": 5279,
      "foundation": 5280,
      "arrival": 5281,
      "longest": 5282,
      "paralle": 5283,
      "1966": 5284,
      "decade": 5285,
      "1952": 5286,
      "clubs": 5287,
      "billion": 5288,
      "chapter": 5289,
      "participated": 5290,
      "championship": 5291,
      "enjoyed": 5292,
      "Temple": 5293,
      "Area": 5294,
      "paintings": 5295,
      "fresh": 5296,
      "witness": 5297,
      "accompanied": 5298,
      "61": 5299,
      "Ari": 5300,
      "Bart": 5301,
      "Cy": 5302,
      "Five": 5303,
      "Hun": 5304,
      "Hell": 5305,
      "Mic": 5306,
      "RE": 5307,
      "Ret": 5308,
      "Uly": 5309,
      "aer": 5310,
      "bbe": 5311,
      "crop": 5312,
      "dress": 5313,
      "von": 5314,
      "thesis": 5315,
      "ange": 5316,
      "stret": 5317,
      "acu": 5318,
      "oldest": 5319,
      "wides": 5320,
      "agent": 5321,
      "neck": 5322,
      "Chains": 5323,
      "preci": 5324,
      "roughly": 5325,
      "developing": 5326,
      "heads": 5327,
      "Maria": 5328,
      "passeng": 5329,
      "1936": 5330,
      "tells": 5331,
      "senior": 5332,
      "MacLeod": 5333,
      "Ulysses": 5334,
      "Aer": 5335,
      "Bre": 5336,
      "Band": 5337,
      "CD": 5338,
      "DS": 5339,
      "Fall": 5340,
      "Ly": 5341,
      "Mur": 5342,
      "Ron": 5343,
      "hur": 5344,
      "inspir": 5345,
      "remix": 5346,
      "academ": 5347,
      "tery": 5348,
      "iding": 5349,
      "abo": 5350,
      "Instead": 5351,
      "desc": 5352,
      "pread": 5353,
      "Arm": 5354,
      "viewed": 5355,
      "crim": 5356,
      "16th": 5357,
      "choice": 5358,
      "1973": 5359,
      "dominated": 5360,
      "lasted": 5361,
      "Board": 5362,
      "Admir": 5363,
      "holding": 5364,
      "combination": 5365,
      "consists": 5366,
      "skin": 5367,
      "technology": 5368,
      "existence": 5369,
      "massive": 5370,
      "violence": 5371,
      "accident": 5372,
      "poetry": 5373,
      "credited": 5374,
      "regarding": 5375,
      "crowd": 5376,
      "Dougl": 5377,
      "athletes": 5378,
      "populations": 5379,
      "remn": 5380,
      "saurus": 5381,
      "Anthony": 5382,
      "Turkish": 5383,
      "Blo": 5384,
      "Iguan": 5385,
      "Sup": 5386,
      "cance": 5387,
      "dating": 5388,
      "ov": 5389,
      "eda": 5390,
      "rose": 5391,
      "advis": 5392,
      "comic": 5393,
      "acted": 5394,
      "spons": 5395,
      "weet": 5396,
      "visible": 5397,
      "cki": 5398,
      "filming": 5399,
      "Commit": 5400,
      "submar": 5401,
      "calls": 5402,
      "1967": 5403,
      "ification": 5404,
      "trait": 5405,
      "college": 5406,
      "frame": 5407,
      "closely": 5408,
      "competitions": 5409,
      "existing": 5410,
      "association": 5411,
      "AAF": 5412,
      "committee": 5413,
      "performing": 5414,
      "applied": 5415,
      "weakened": 5416,
      "Iguanodon": 5417,
      "110": 5418,
      "59": 5419,
      "Aston": 5420,
      "Bur": 5421,
      "Les": 5422,
      "Test": 5423,
      "fare": 5424,
      "iation": 5425,
      "ole": 5426,
      "acher": 5427,
      "del": 5428,
      "Theatre": 5429,
      "1914": 5430,
      "neither": 5431,
      "perhaps": 5432,
      "derived": 5433,
      "fication": 5434,
      "disc": 5435,
      "appeal": 5436,
      "transit": 5437,
      "Marl": 5438,
      "battalions": 5439,
      "priest": 5440,
      "correct": 5441,
      "stones": 5442,
      "Liber": 5443,
      "provides": 5444,
      "greatly": 5445,
      "Mountain": 5446,
      "session": 5447,
      "motion": 5448,
      "learned": 5449,
      "painting": 5450,
      "archaeological": 5451,
      "Golden": 5452,
      "occasionally": 5453,
      "administration": 5454,
      "reinforce": 5455,
      "1930s": 5456,
      "pilot": 5457,
      "opportunity": 5458,
      "ceremony": 5459,
      "AML": 5460,
      "Bishop": 5461,
      "Cari": 5462,
      "Dota": 5463,
      "Fer": 5464,
      "Gil": 5465,
      "Mu": 5466,
      "Ode": 5467,
      "bought": 5468,
      "basket": 5469,
      "dance": 5470,
      "fellow": 5471,
      "knot": 5472,
      "lit": 5473,
      "encounter": 5474,
      "roof": 5475,
      "seat": 5476,
      "adap": 5477,
      "amy": 5478,
      "amber": 5479,
      "ager": 5480,
      "ott": 5481,
      "ulate": 5482,
      "plain": 5483,
      "exer": 5484,
      "ocated": 5485,
      "spell": 5486,
      "Anonymous": 5487,
      "pregn": 5488,
      "speaking": 5489,
      "eleven": 5490,
      "supposed": 5491,
      "receiving": 5492,
      "protected": 5493,
      "storyline": 5494,
      "innings": 5495,
      "churches": 5496,
      "Team": 5497,
      "technique": 5498,
      "invited": 5499,
      "Braz": 5500,
      "details": 5501,
      "vehicles": 5502,
      "dissipated": 5503,
      "Hornung": 5504,
      "bbean": 5505,
      "Douglas": 5506,
      "Caribbean": 5507,
      "Asia": 5508,
      "ERA": 5509,
      "Row": 5510,
      "WA": 5511,
      "fashion": 5512,
      "ki": 5513,
      "ni": 5514,
      "wish": 5515,
      "ía": 5516,
      "inem": 5517,
      "ancy": 5518,
      "onom": 5519,
      "accompl": 5520,
      "seg": 5521,
      "ctors": 5522,
      "rian": 5523,
      "plum": 5524,
      "lide": 5525,
      "astron": 5526,
      "udd": 5527,
      "intend": 5528,
      "pty": 5529,
      "anything": 5530,
      "ountain": 5531,
      "anned": 5532,
      "dram": 5533,
      "drama": 5534,
      "Leon": 5535,
      "receive": 5536,
      "1945": 5537,
      "1971": 5538,
      "trip": 5539,
      "willing": 5540,
      "towns": 5541,
      "Maeda": 5542,
      "Perry": 5543,
      "islands": 5544,
      "typical": 5545,
      "survived": 5546,
      "About": 5547,
      "stopped": 5548,
      "chorus": 5549,
      "Constantine": 5550,
      "Hibari": 5551,
      "Cardinal": 5552,
      "Summer": 5553,
      "Lieutenant": 5554,
      "widespread": 5555,
      "Age": 5556,
      "DA": 5557,
      "EC": 5558,
      "Master": 5559,
      "Qedar": 5560,
      "Rod": 5561,
      "Sara": 5562,
      "Will": 5563,
      "hall": 5564,
      "mate": 5565,
      "page": 5566,
      "safety": 5567,
      "thor": 5568,
      "reput": 5569,
      "stro": 5570,
      "itan": 5571,
      "acid": 5572,
      "why": 5573,
      "convoy": 5574,
      "converted": 5575,
      "agle": 5576,
      "district": 5577,
      "shared": 5578,
      "trave": 5579,
      "poly": 5580,
      "twel": 5581,
      "compon": 5582,
      "assass": 5583,
      "fix": 5584,
      "brary": 5585,
      "ampions": 5586,
      "news": 5587,
      "What": 5588,
      "capac": 5589,
      "1982": 5590,
      "Rox": 5591,
      "trying": 5592,
      "depict": 5593,
      "missing": 5594,
      "protection": 5595,
      "authors": 5596,
      "Romani": 5597,
      "Georgian": 5598,
      "looked": 5599,
      "glass": 5600,
      "glades": 5601,
      "Simon": 5602,
      "settlers": 5603,
      "ruli": 5604,
      "flights": 5605,
      "acquired": 5606,
      "Brien": 5607,
      "digital": 5608,
      "Brook": 5609,
      "truth": 5610,
      "repeated": 5611,
      "Fantasy": 5612,
      "Chelsea": 5613,
      "52": 5614,
      "66": 5615,
      "Bond": 5616,
      "Broad": 5617,
      "DNA": 5618,
      "Nat": 5619,
      "Rio": 5620,
      "bie": 5621,
      "lings": 5622,
      "rates": 5623,
      "sens": 5624,
      "table": 5625,
      "wise": 5626,
      "wedding": 5627,
      "repl": 5628,
      "ati": 5629,
      "stal": 5630,
      "arranged": 5631,
      "entially": 5632,
      "univers": 5633,
      "1916": 5634,
      "1913": 5635,
      "aked": 5636,
      "fee": 5637,
      "qual": 5638,
      "evacu": 5639,
      "spacing": 5640,
      "guard": 5641,
      "speech": 5642,
      "substant": 5643,
      "locations": 5644,
      "1980": 5645,
      "succeeded": 5646,
      "1976": 5647,
      "depicted": 5648,
      "label": 5649,
      "funding": 5650,
      "1956": 5651,
      "Moz": 5652,
      "graded": 5653,
      "baseball": 5654,
      "focused": 5655,
      "planning": 5656,
      "watched": 5657,
      "issance": 5658,
      "rossing": 5659,
      "biography": 5660,
      "experiment": 5661,
      "benef": 5662,
      "Oslo": 5663,
      "opinion": 5664,
      "Haiti": 5665,
      "Radio": 5666,
      "permanent": 5667,
      "Freder": 5668,
      "happy": 5669,
      "Shortly": 5670,
      "atmosphere": 5671,
      "Gar": 5672,
      "Jones": 5673,
      "Oh": 5674,
      "VN": 5675,
      "Vill": 5676,
      "Wi": 5677,
      "dog": 5678,
      "fuel": 5679,
      "governor": 5680,
      "knew": 5681,
      "nell": 5682,
      "nie": 5683,
      "oth": 5684,
      "pha": 5685,
      "tack": 5686,
      "thetic": 5687,
      "atures": 5688,
      "asser": 5689,
      "aced": 5690,
      "channel": 5691,
      "ressive": 5692,
      "modi": 5693,
      "dub": 5694,
      "forming": 5695,
      "awn": 5696,
      "creator": 5697,
      "oking": 5698,
      "sions": 5699,
      "appearing": 5700,
      "Rober": 5701,
      "1943": 5702,
      "steam": 5703,
      "USA": 5704,
      "penalty": 5705,
      "reality": 5706,
      "providing": 5707,
      "Georg": 5708,
      "decline": 5709,
      "electric": 5710,
      "cruiser": 5711,
      "Daniel": 5712,
      "earthquake": 5713,
      "routes": 5714,
      "Venus": 5715,
      "Allied": 5716,
      "Brazil": 5717,
      "250": 5718,
      "Dream": 5719,
      "GN": 5720,
      "Gully": 5721,
      "Hindu": 5722,
      "IGN": 5723,
      "NS": 5724,
      "Rangers": 5725,
      "hun": 5726,
      "jack": 5727,
      "tied": 5728,
      "wins": 5729,
      "stances": 5730,
      "esc": 5731,
      "accur": 5732,
      "convin": 5733,
      "ateur": 5734,
      "aste": 5735,
      "Stadium": 5736,
      "evo": 5737,
      "renamed": 5738,
      "airport": 5739,
      "charter": 5740,
      "10th": 5741,
      "leads": 5742,
      "1963": 5743,
      "grapher": 5744,
      "getting": 5745,
      "sky": 5746,
      "separated": 5747,
      "Morrison": 5748,
      "doub": 5749,
      "Everglades": 5750,
      "delivered": 5751,
      "thousands": 5752,
      "Secretary": 5753,
      "Family": 5754,
      "supplies": 5755,
      "Additionally": 5756,
      "Phoen": 5757,
      "BS": 5758,
      "Homer": 5759,
      "Jay": 5760,
      "Ken": 5761,
      "Pet": 5762,
      "Run": 5763,
      "UTC": 5764,
      "avi": 5765,
      "cit": 5766,
      "gus": 5767,
      "iqu": 5768,
      "jump": 5769,
      "kins": 5770,
      "mine": 5771,
      "march": 5772,
      "rural": 5773,
      "wart": 5774,
      "ont": 5775,
      "ented": 5776,
      "entry": 5777,
      "beth": 5778,
      "constant": 5779,
      "iday": 5780,
      "opposition": 5781,
      "emperor": 5782,
      "outs": 5783,
      "aug": 5784,
      "regime": 5785,
      "remainder": 5786,
      "Gram": 5787,
      "protect": 5788,
      "controll": 5789,
      "Australians": 5790,
      "turning": 5791,
      "commanded": 5792,
      "introduction": 5793,
      "consisting": 5794,
      "ruled": 5795,
      "Sunday": 5796,
      "certified": 5797,
      "eyes": 5798,
      "achieve": 5799,
      "Hollywood": 5800,
      "teaching": 5801,
      "Archae": 5802,
      "Bradford": 5803,
      "Alexander": 5804,
      "Office": 5805,
      "instrument": 5806,
      "secure": 5807,
      "Friends": 5808,
      "Columbia": 5809,
      "Committee": 5810,
      "Native": 5811,
      "Patt": 5812,
      "Sap": 5813,
      "franch": 5814,
      "gé": 5815,
      "iro": 5816,
      "jillo": 5817,
      "oz": 5818,
      "races": 5819,
      "til": 5820,
      "ued": 5821,
      "aton": 5822,
      "inger": 5823,
      "ads": 5824,
      "ador": 5825,
      "irt": 5826,
      "iring": 5827,
      "ried": 5828,
      "exact": 5829,
      "quite": 5830,
      "affect": 5831,
      "attached": 5832,
      "ansion": 5833,
      "noisy": 5834,
      "genet": 5835,
      "symp": 5836,
      "drug": 5837,
      "surrender": 5838,
      "address": 5839,
      "1978": 5840,
      "Marine": 5841,
      "valley": 5842,
      "1953": 5843,
      "turns": 5844,
      "Life": 5845,
      "occurs": 5846,
      "technical": 5847,
      "Holy": 5848,
      "regularly": 5849,
      "assistance": 5850,
      "Maryland": 5851,
      "establishment": 5852,
      "economy": 5853,
      "defined": 5854,
      "Croatian": 5855,
      "powers": 5856,
      "distinct": 5857,
      "Director": 5858,
      "revolution": 5859,
      "Trujillo": 5860,
      "Bor": 5861,
      "Bern": 5862,
      "Dar": 5863,
      "Lin": 5864,
      "NBC": 5865,
      "Sa": 5866,
      "Sound": 5867,
      "bone": 5868,
      "dim": 5869,
      "dry": 5870,
      "mere": 5871,
      "tall": 5872,
      "wr": 5873,
      "enge": 5874,
      "oul": 5875,
      "leaves": 5876,
      "ilton": 5877,
      "apers": 5878,
      "ighter": 5879,
      "iston": 5880,
      "Chronic": 5881,
      "finishing": 5882,
      "interior": 5883,
      "forests": 5884,
      "Alan": 5885,
      "producing": 5886,
      "download": 5887,
      "successor": 5888,
      "ennon": 5889,
      "11th": 5890,
      "sequences": 5891,
      "denied": 5892,
      "changing": 5893,
      "studied": 5894,
      "Missis": 5895,
      "Charlie": 5896,
      "burg": 5897,
      "Walter": 5898,
      "prede": 5899,
      "surviv": 5900,
      "Somal": 5901,
      "sippi": 5902,
      "scholars": 5903,
      "methods": 5904,
      "shooting": 5905,
      "portrayed": 5906,
      "Engineer": 5907,
      "reputation": 5908,
      "Roxas": 5909,
      "Mississippi": 5910,
      "112": 5911,
      "72": 5912,
      "85": 5913,
      "Bell": 5914,
      "Kr": 5915,
      "Kil": 5916,
      "Low": 5917,
      "bass": 5918,
      "fal": 5919,
      "mut": 5920,
      "sn": 5921,
      "sight": 5922,
      "anes": 5923,
      "acre": 5924,
      "uration": 5925,
      "immig": 5926,
      "agues": 5927,
      "1915": 5928,
      "sud": 5929,
      "abour": 5930,
      "shop": 5931,
      "ardo": 5932,
      "prised": 5933,
      "worst": 5934,
      "recru": 5935,
      "dismissed": 5936,
      "prey": 5937,
      "gameplay": 5938,
      "crime": 5939,
      "offense": 5940,
      "suppor": 5941,
      "unting": 5942,
      "breaking": 5943,
      "camps": 5944,
      "joint": 5945,
      "Within": 5946,
      "entering": 5947,
      "Activision": 5948,
      "patron": 5949,
      "honour": 5950,
      "satis": 5951,
      "habitat": 5952,
      "indicate": 5953,
      "Howard": 5954,
      "Samuel": 5955,
      "susp": 5956,
      "pattern": 5957,
      "battleship": 5958,
      "intelligence": 5959,
      "81": 5960,
      "87": 5961,
      "Gab": 5962,
      "Mul": 5963,
      "OT": 5964,
      "Pers": 5965,
      "Ridge": 5966,
      "Snow": 5967,
      "gone": 5968,
      "iers": 5969,
      "puzz": 5970,
      "rab": 5971,
      "squadron": 5972,
      "inity": 5973,
      "infr": 5974,
      "institut": 5975,
      "replace": 5976,
      "store": 5977,
      "earch": 5978,
      "noting": 5979,
      "udes": 5980,
      "attributed": 5981,
      "brand": 5982,
      "monarch": 5983,
      "monument": 5984,
      "phone": 5985,
      "charges": 5986,
      "offman": 5987,
      "description": 5988,
      "Marsh": 5989,
      "chemical": 5990,
      "Stefan": 5991,
      "classes": 5992,
      "magn": 5993,
      "politics": 5994,
      "basin": 5995,
      "charts": 5996,
      "novels": 5997,
      "interested": 5998,
      "Plunk": 5999,
      "recognition": 6000,
      "discussed": 6001,
      "alternative": 6002,
      "bella": 6003,
      "Hugh": 6004,
      "dollars": 6005,
      "Calvert": 6006,
      "Isabella": 6007,
      "knots": 6008,
      "adapted": 6009,
      "capacity": 6010,
      "71": 6011,
      "AD": 6012,
      "Danny": 6013,
      "Pope": 6014,
      "Wall": 6015,
      "baby": 6016,
      "cab": 6017,
      "jevo": 6018,
      "pound": 6019,
      "va": 6020,
      "vary": 6021,
      "sector": 6022,
      "sections": 6023,
      "cture": 6024,
      "1917": 6025,
      "resour": 6026,
      "dies": 6027,
      "ameter": 6028,
      "itsune": 6029,
      "angerous": 6030,
      "safe": 6031,
      "offers": 6032,
      "describing": 6033,
      "1948": 6034,
      "statement": 6035,
      "generation": 6036,
      "correspond": 6037,
      "younger": 6038,
      "medieval": 6039,
      "coastal": 6040,
      "accounts": 6041,
      "Jersey": 6042,
      "rupt": 6043,
      "bringing": 6044,
      "divine": 6045,
      "Weekly": 6046,
      "Lisa": 6047,
      "micro": 6048,
      "Sarajevo": 6049,
      "predecess": 6050,
      "62": 6051,
      "69": 6052,
      "Daily": 6053,
      "Hard": 6054,
      "Jun": 6055,
      "Less": 6056,
      "Ray": 6057,
      "Vol": 6058,
      "Wind": 6059,
      "Ye": 6060,
      "Yank": 6061,
      "ba": 6062,
      "caught": 6063,
      "cinem": 6064,
      "ninth": 6065,
      "rac": 6066,
      "sun": 6067,
      "zone": 6068,
      "rey": 6069,
      "ena": 6070,
      "isers": 6071,
      "isions": 6072,
      "esh": 6073,
      "itors": 6074,
      "hem": 6075,
      "rol": 6076,
      "adj": 6077,
      "bels": 6078,
      "ols": 6079,
      "agents": 6080,
      "plants": 6081,
      "emotional": 6082,
      "expect": 6083,
      "soil": 6084,
      "firing": 6085,
      "Chart": 6086,
      "formal": 6087,
      "attle": 6088,
      "partial": 6089,
      "desire": 6090,
      "disci": 6091,
      "Albert": 6092,
      "Austri": 6093,
      "someone": 6094,
      "retire": 6095,
      "iful": 6096,
      "Real": 6097,
      "1979": 6098,
      "legs": 6099,
      "tribes": 6100,
      "characteristics": 6101,
      "solid": 6102,
      "1951": 6103,
      "Stephen": 6104,
      "strip": 6105,
      "everything": 6106,
      "basic": 6107,
      "seeing": 6108,
      "Similar": 6109,
      "difficulty": 6110,
      "learn": 6111,
      "Strand": 6112,
      "considerable": 6113,
      "journey": 6114,
      "rarely": 6115,
      "discovery": 6116,
      "Victoria": 6117,
      "Industry": 6118,
      "Destiny": 6119,
      "article": 6120,
      "restaurant": 6121,
      "ardian": 6122,
      "Frederick": 6123,
      "Yankovic": 6124,
      "79": 6125,
      "Press": 6126,
      "Rel": 6127,
      "Top": 6128,
      "Xe": 6129,
      "Your": 6130,
      "bond": 6131,
      "gro": 6132,
      "kā": 6133,
      "taught": 6134,
      "ining": 6135,
      "replacement": 6136,
      "orer": 6137,
      "itage": 6138,
      "liked": 6139,
      "Init": 6140,
      "fear": 6141,
      "manner": 6142,
      "owner": 6143,
      "landed": 6144,
      "bling": 6145,
      "oked": 6146,
      "shel": 6147,
      "rows": 6148,
      "Around": 6149,
      "Joe": 6150,
      "Recording": 6151,
      "perior": 6152,
      "1961": 6153,
      "cycle": 6154,
      "distribution": 6155,
      "evening": 6156,
      "1954": 6157,
      "personnel": 6158,
      "facing": 6159,
      "Miss": 6160,
      "wooden": 6161,
      "involvement": 6162,
      "hotel": 6163,
      "relationships": 6164,
      "Somali": 6165,
      "nomination": 6166,
      "specifically": 6167,
      "chapel": 6168,
      "calcul": 6169,
      "colonial": 6170,
      "rhyth": 6171,
      "thirty": 6172,
      "opponents": 6173,
      "Clarkson": 6174,
      "Rolling": 6175,
      "Mozamb": 6176,
      "sudden": 6177,
      "Bono": 6178,
      "Dom": 6179,
      "Fame": 6180,
      "Hal": 6181,
      "Jif": 6182,
      "Mod": 6183,
      "Ros": 6184,
      "Sub": 6185,
      "Santa": 6186,
      "dock": 6187,
      "fil": 6188,
      "pa": 6189,
      "assem": 6190,
      "ingale": 6191,
      "deed": 6192,
      "agree": 6193,
      "teacher": 6194,
      "idges": 6195,
      "oting": 6196,
      "pete": 6197,
      "sized": 6198,
      "Anton": 6199,
      "intersection": 6200,
      "Review": 6201,
      "Lee": 6202,
      "pointed": 6203,
      "Develop": 6204,
      "warm": 6205,
      "rug": 6206,
      "fungus": 6207,
      "Wilde": 6208,
      "approved": 6209,
      "appropri": 6210,
      "1937": 6211,
      "communities": 6212,
      "vote": 6213,
      "poems": 6214,
      "Nether": 6215,
      "rules": 6216,
      "Montana": 6217,
      "Duke": 6218,
      "believes": 6219,
      "Jerusal": 6220,
      "error": 6221,
      "Research": 6222,
      "secured": 6223,
      "picked": 6224,
      "Colonel": 6225,
      "controversy": 6226,
      "neighbor": 6227,
      "recommended": 6228,
      "Francisco": 6229,
      "Simpsons": 6230,
      "Castle": 6231,
      "Skye": 6232,
      "Roberts": 6233,
      "Jifna": 6234,
      "Jerusalem": 6235,
      "89": 6236,
      "AR": 6237,
      "LI": 6238,
      "Mit": 6239,
      "Pul": 6240,
      "Ré": 6241,
      "Tel": 6242,
      "crown": 6243,
      "dict": 6244,
      "hat": 6245,
      "hope": 6246,
      "kings": 6247,
      "nav": 6248,
      "squad": 6249,
      "ta": 6250,
      "vac": 6251,
      "itled": 6252,
      "cher": 6253,
      "apart": 6254,
      "pled": 6255,
      "trap": 6256,
      "eving": 6257,
      "intention": 6258,
      "ultane": 6259,
      "cks": 6260,
      "genre": 6261,
      "whereas": 6262,
      "releg": 6263,
      "signing": 6264,
      "erald": 6265,
      "volunte": 6266,
      "hydro": 6267,
      "standards": 6268,
      "1955": 6269,
      "drawing": 6270,
      "Order": 6271,
      "municip": 6272,
      "Hamilton": 6273,
      "concerns": 6274,
      "Olympics": 6275,
      "Military": 6276,
      "leadership": 6277,
      "principal": 6278,
      "split": 6279,
      "specimens": 6280,
      "incorporated": 6281,
      "Adams": 6282,
      "extremely": 6283,
      "Television": 6284,
      "Independent": 6285,
      "Argentina": 6286,
      "sufficient": 6287,
      "Jeff": 6288,
      "Eliza": 6289,
      "organizations": 6290,
      "98": 6291,
      "Cory": 6292,
      "Here": 6293,
      "bay": 6294,
      "fine": 6295,
      "jazz": 6296,
      "none": 6297,
      "tend": 6298,
      "wine": 6299,
      "youth": 6300,
      "remo": 6301,
      "restr": 6302,
      "sta": 6303,
      "ading": 6304,
      "terior": 6305,
      "ceived": 6306,
      "conference": 6307,
      "1900": 6308,
      "commo": 6309,
      "uma": 6310,
      "divisions": 6311,
      "diameter": 6312,
      "ureau": 6313,
      "pton": 6314,
      "poses": 6315,
      "parties": 6316,
      "partners": 6317,
      "knock": 6318,
      "indicated": 6319,
      "surg": 6320,
      "showing": 6321,
      "Beach": 6322,
      "Forces": 6323,
      "tries": 6324,
      "xture": 6325,
      "distributed": 6326,
      "sequently": 6327,
      "1958": 6328,
      "Prime": 6329,
      "existed": 6330,
      "connection": 6331,
      "approached": 6332,
      "teeth": 6333,
      "threatened": 6334,
      "treaty": 6335,
      "surrounded": 6336,
      "emerged": 6337,
      "europium": 6338,
      "ranean": 6339,
      "Banai": 6340,
      "expensive": 6341,
      "3D": 6342,
      "77": 6343,
      "Jere": 6344,
      "Lennon": 6345,
      "Spring": 6346,
      "Wy": 6347,
      "Yan": 6348,
      "bats": 6349,
      "cos": 6350,
      "fold": 6351,
      "ja": 6352,
      "ka": 6353,
      "mally": 6354,
      "pse": 6355,
      "tip": 6356,
      "wants": 6357,
      "ét": 6358,
      "edom": 6359,
      "ene": 6360,
      "hear": 6361,
      "leep": 6362,
      "leuk": 6363,
      "aded": 6364,
      "irs": 6365,
      "unusual": 6366,
      "dialo": 6367,
      "shark": 6368,
      "strateg": 6369,
      "izes": 6370,
      "Norman": 6371,
      "Bru": 6372,
      "1949": 6373,
      "1977": 6374,
      "Carl": 6375,
      "Carter": 6376,
      "alien": 6377,
      "references": 6378,
      "historians": 6379,
      "railway": 6380,
      "crossed": 6381,
      "Depression": 6382,
      "painted": 6383,
      "immediate": 6384,
      "favorite": 6385,
      "hoped": 6386,
      "demonstr": 6387,
      "ratings": 6388,
      "documentary": 6389,
      "lbw": 6390,
      "expedition": 6391,
      "Roger": 6392,
      "embark": 6393,
      "isolated": 6394,
      "wrong": 6395,
      "institutions": 6396,
      "Modern": 6397,
      "Cru": 6398,
      "Goffman": 6399,
      "Hon": 6400,
      "Mun": 6401,
      "Net": 6402,
      "Sm": 6403,
      "WW": 6404,
      "ege": 6405,
      "ívar": 6406,
      "inte": 6407,
      "inland": 6408,
      "incess": 6409,
      "stic": 6410,
      "ione": 6411,
      "admitted": 6412,
      "veget": 6413,
      "concer": 6414,
      "usad": 6415,
      "oty": 6416,
      "etts": 6417,
      "ester": 6418,
      "fection": 6419,
      "Unlike": 6420,
      "annivers": 6421,
      "regional": 6422,
      "indig": 6423,
      "covering": 6424,
      "designation": 6425,
      "13th": 6426,
      "protests": 6427,
      "Hergé": 6428,
      "sequel": 6429,
      "reviewer": 6430,
      "strongly": 6431,
      "destroyers": 6432,
      "expansion": 6433,
      "treated": 6434,
      "languages": 6435,
      "motor": 6436,
      "cruisers": 6437,
      "literary": 6438,
      "examples": 6439,
      "demol": 6440,
      "watershed": 6441,
      "Janeiro": 6442,
      "Bolívar": 6443,
      "junction": 6444,
      "message": 6445,
      "duties": 6446,
      "Ryan": 6447,
      "assumed": 6448,
      "protagonist": 6449,
      "Saprang": 6450,
      "franchise": 6451,
      "Kilmer": 6452,
      "anniversary": 6453,
      "Back": 6454,
      "Dur": 6455,
      "Fern": 6456,
      "Iron": 6457,
      "Kat": 6458,
      "Kel": 6459,
      "Tower": 6460,
      "Wim": 6461,
      "dess": 6462,
      "san": 6463,
      "tone": 6464,
      "tie": 6465,
      "wet": 6466,
      "theat": 6467,
      "theatre": 6468,
      "erog": 6469,
      "orter": 6470,
      "orche": 6471,
      "stadium": 6472,
      "sects": 6473,
      "imet": 6474,
      "plane": 6475,
      "distr": 6476,
      "Chief": 6477,
      "assess": 6478,
      "aws": 6479,
      "Hearts": 6480,
      "meets": 6481,
      "airline": 6482,
      "sons": 6483,
      "survey": 6484,
      "1983": 6485,
      "completion": 6486,
      "placing": 6487,
      "winner": 6488,
      "listen": 6489,
      "defended": 6490,
      "BCE": 6491,
      "equival": 6492,
      "tailed": 6493,
      "rooms": 6494,
      "rapped": 6495,
      "naissance": 6496,
      "minister": 6497,
      "sessions": 6498,
      "employe": 6499,
      "engineering": 6500,
      "detailed": 6501,
      "circum": 6502,
      "Lords": 6503,
      "attracted": 6504,
      "department": 6505,
      "bledon": 6506,
      "absor": 6507,
      "rescue": 6508,
      "wearing": 6509,
      "specimen": 6510,
      "Burns": 6511,
      "eighth": 6512,
      "eggs": 6513,
      "easily": 6514,
      "academic": 6515,
      "Georgia": 6516,
      "Wimbledon": 6517,
      "Ba": 6518,
      "Det": 6519,
      "Ele": 6520,
      "Rhy": 6521,
      "Square": 6522,
      "aud": 6523,
      "bin": 6524,
      "ez": 6525,
      "faster": 6526,
      "gor": 6527,
      "hl": 6528,
      "ju": 6529,
      "pine": 6530,
      "uct": 6531,
      "intr": 6532,
      "inning": 6533,
      "ona": 6534,
      "atus": 6535,
      "arg": 6536,
      "ician": 6537,
      "acent": 6538,
      "elder": 6539,
      "plate": 6540,
      "umed": 6541,
      "Ind": 6542,
      "poser": 6543,
      "istry": 6544,
      "acknow": 6545,
      "ockey": 6546,
      "spit": 6547,
      "sche": 6548,
      "cessive": 6549,
      "muscar": 6550,
      "starling": 6551,
      "operate": 6552,
      "Gerard": 6553,
      "reading": 6554,
      "carbon": 6555,
      "Color": 6556,
      "attempting": 6557,
      "effectively": 6558,
      "settled": 6559,
      "surviving": 6560,
      "moral": 6561,
      "Point": 6562,
      "terminus": 6563,
      "assistant": 6564,
      "traveled": 6565,
      "practices": 6566,
      "territories": 6567,
      "accused": 6568,
      "Richardson": 6569,
      "civilian": 6570,
      "Cambridge": 6571,
      "blocks": 6572,
      "feeling": 6573,
      "Lawton": 6574,
      "Singles": 6575,
      "reserve": 6576,
      "Territ": 6577,
      "challenge": 6578,
      "Human": 6579,
      "controversi": 6580,
      "encouraged": 6581,
      "mobile": 6582,
      "Rhodes": 6583,
      "Writing": 6584,
      "Jean": 6585,
      "citiz": 6586,
      "Somalia": 6587,
      "adjacent": 6588,
      "leukem": 6589,
      "63": 6590,
      "Base": 6591,
      "CC": 6592,
      "Edu": 6593,
      "Komb": 6594,
      "Produ": 6595,
      "Sav": 6596,
      "dal": 6597,
      "jum": 6598,
      "nos": 6599,
      "tz": 6600,
      "inhabit": 6601,
      "owed": 6602,
      "1910": 6603,
      "resent": 6604,
      "aints": 6605,
      "romantic": 6606,
      "shots": 6607,
      "loan": 6608,
      "lose": 6609,
      "grav": 6610,
      "formally": 6611,
      "compounds": 6612,
      "auto": 6613,
      "intense": 6614,
      "partly": 6615,
      "spur": 6616,
      "recalled": 6617,
      "scape": 6618,
      "Aniston": 6619,
      "interchange": 6620,
      "somewhat": 6621,
      "crash": 6622,
      "Attor": 6623,
      "cript": 6624,
      "identity": 6625,
      "memorial": 6626,
      "decor": 6627,
      "towers": 6628,
      "stands": 6629,
      "grey": 6630,
      "generated": 6631,
      "armor": 6632,
      "classical": 6633,
      "1909": 6634,
      "Keamy": 6635,
      "seemed": 6636,
      "brothers": 6637,
      "Commonwealth": 6638,
      "possession": 6639,
      "recovered": 6640,
      "photograph": 6641,
      "scientific": 6642,
      "Formula": 6643,
      "candidate": 6644,
      "Journal": 6645,
      "obtained": 6646,
      "arrangement": 6647,
      "Mortal": 6648,
      "agricultural": 6649,
      "Jesus": 6650,
      "inspiration": 6651,
      "Admiral": 6652,
      "Kombat": 6653,
      "Attorney": 6654,
      "57": 6655,
      "Every": 6656,
      "Fire": 6657,
      "Fras": 6658,
      "Ko": 6659,
      "OK": 6660,
      "Pine": 6661,
      "Power": 6662,
      "Sports": 6663,
      "Wolf": 6664,
      "fant": 6665,
      "gall": 6666,
      "hits": 6667,
      "lake": 6668,
      "ocean": 6669,
      "soft": 6670,
      "thosaurus": 6671,
      "select": 6672,
      "forcing": 6673,
      "implement": 6674,
      "wid": 6675,
      "idd": 6676,
      "1912": 6677,
      "proceed": 6678,
      "estate": 6679,
      "kee": 6680,
      "spaces": 6681,
      "Third": 6682,
      "fled": 6683,
      "angular": 6684,
      "normally": 6685,
      "Johnston": 6686,
      "Marines": 6687,
      "passage": 6688,
      "videos": 6689,
      "Islam": 6690,
      "solution": 6691,
      "funds": 6692,
      "Guy": 6693,
      "Germans": 6694,
      "1931": 6695,
      "1935": 6696,
      "footage": 6697,
      "Poland": 6698,
      "equal": 6699,
      "affair": 6700,
      "Islands": 6701,
      "hosted": 6702,
      "reduce": 6703,
      "suffering": 6704,
      "perspect": 6705,
      "linked": 6706,
      "Type": 6707,
      "preserved": 6708,
      "sculpture": 6709,
      "Transport": 6710,
      "industrial": 6711,
      "Stevens": 6712,
      "basketball": 6713,
      "fixed": 6714,
      "Plunketts": 6715,
      "kān": 6716,
      "Corythosaurus": 6717,
      "integr": 6718,
      "Fraser": 6719,
      "93": 6720,
      "Nintend": 6721,
      "gif": 6722,
      "mature": 6723,
      "wich": 6724,
      "income": 6725,
      "amateur": 6726,
      "chronic": 6727,
      "destruction": 6728,
      "igation": 6729,
      "convent": 6730,
      "ider": 6731,
      "composer": 6732,
      "abled": 6733,
      "lik": 6734,
      "province": 6735,
      "peare": 6736,
      "eman": 6737,
      "siege": 6738,
      "astru": 6739,
      "overw": 6740,
      "serial": 6741,
      "contribut": 6742,
      "oba": 6743,
      "ifying": 6744,
      "medium": 6745,
      "ensus": 6746,
      "ificial": 6747,
      "Shakes": 6748,
      "legend": 6749,
      "attacking": 6750,
      "continuing": 6751,
      "lists": 6752,
      "attered": 6753,
      "courts": 6754,
      "grounds": 6755,
      "Allah": 6756,
      "reviewers": 6757,
      "1932": 6758,
      "Hotel": 6759,
      "learning": 6760,
      "stayed": 6761,
      "Arabic": 6762,
      "responsibility": 6763,
      "concerned": 6764,
      "printed": 6765,
      "circulation": 6766,
      "FIA": 6767,
      "persist": 6768,
      "equipped": 6769,
      "debate": 6770,
      "adults": 6771,
      "Peninsula": 6772,
      "opposite": 6773,
      "Marlborough": 6774,
      "twelve": 6775,
      "escort": 6776,
      "erogative": 6777,
      "controversial": 6778,
      "Nintendo": 6779,
      "Shakespeare": 6780,
      "Bron": 6781,
      "Cad": 6782,
      "Fair": 6783,
      "Flight": 6784,
      "Owen": 6785,
      "Pan": 6786,
      "SB": 6787,
      "cation": 6788,
      "crossing": 6789,
      "horn": 6790,
      "kitsune": 6791,
      "mast": 6792,
      "ua": 6793,
      "voted": 6794,
      "inaug": 6795,
      "reconstruction": 6796,
      "rebels": 6797,
      "orous": 6798,
      "accommo": 6799,
      "amond": 6800,
      "bearing": 6801,
      "depos": 6802,
      "deck": 6803,
      "agen": 6804,
      "agas": 6805,
      "1911": 6806,
      "1921": 6807,
      "1929": 6808,
      "trust": 6809,
      "feather": 6810,
      "essential": 6811,
      "ritual": 6812,
      "lowest": 6813,
      "understanding": 6814,
      "tribut": 6815,
      "inking": 6816,
      "Fei": 6817,
      "promote": 6818,
      "aska": 6819,
      "falling": 6820,
      "profit": 6821,
      "netic": 6822,
      "laws": 6823,
      "Palace": 6824,
      "Palmy": 6825,
      "meetings": 6826,
      "driving": 6827,
      "measures": 6828,
      "Donald": 6829,
      "exception": 6830,
      "Lawrence": 6831,
      "holiday": 6832,
      "throwing": 6833,
      "observations": 6834,
      "Patrick": 6835,
      "initiative": 6836,
      "pushed": 6837,
      "Stanley": 6838,
      "victims": 6839,
      "parallel": 6840,
      "passengers": 6841,
      "remnants": 6842,
      "Netherlands": 6843,
      "Ell": 6844,
      "Glo": 6845,
      "Garc": 6846,
      "OC": 6847,
      "RNA": 6848,
      "Sweet": 6849,
      "cash": 6850,
      "mad": 6851,
      "sung": 6852,
      "thin": 6853,
      "inct": 6854,
      "infl": 6855,
      "atops": 6856,
      "stap": 6857,
      "arte": 6858,
      "lets": 6859,
      "olay": 6860,
      "unsuccessful": 6861,
      "uscript": 6862,
      "apy": 6863,
      "comments": 6864,
      "superior": 6865,
      "absol": 6866,
      "exha": 6867,
      "afts": 6868,
      "raise": 6869,
      "flat": 6870,
      "understand": 6871,
      "retained": 6872,
      "offs": 6873,
      "storms": 6874,
      "1962": 6875,
      "musicians": 6876,
      "returns": 6877,
      "defences": 6878,
      "Guardian": 6879,
      "1959": 6880,
      "1938": 6881,
      "Geoff": 6882,
      "involving": 6883,
      "representing": 6884,
      "goddess": 6885,
      "Atlanta": 6886,
      "praise": 6887,
      "villages": 6888,
      "difficulties": 6889,
      "Hospital": 6890,
      "Player": 6891,
      "Queens": 6892,
      "objects": 6893,
      "Emperor": 6894,
      "occasions": 6895,
      "pitcher": 6896,
      "Stock": 6897,
      "carrying": 6898,
      "Pitman": 6899,
      "illustr": 6900,
      "vessels": 6901,
      "Korean": 6902,
      "intensified": 6903,
      "global": 6904,
      "Cambodia": 6905,
      "Stefani": 6906,
      "Elizabeth": 6907,
      "batsman": 6908,
      "equivalent": 6909,
      "García": 6910,
      "exhaust": 6911,
      "88": 6912,
      "AP": 6913,
      "CP": 6914,
      "Jos": 6915,
      "Joy": 6916,
      "Our": 6917,
      "Pi": 6918,
      "Tha": 6919,
      "cry": 6920,
      "mart": 6921,
      "psy": 6922,
      "sam": 6923,
      "wel": 6924,
      "online": 6925,
      "renew": 6926,
      "stell": 6927,
      "anda": 6928,
      "accompany": 6929,
      "sees": 6930,
      "terbury": 6931,
      "consum": 6932,
      "context": 6933,
      "elli": 6934,
      "moon": 6935,
      "prohib": 6936,
      "clock": 6937,
      "expo": 6938,
      "exchange": 6939,
      "Channel": 6940,
      "Story": 6941,
      "crest": 6942,
      "bright": 6943,
      "answ": 6944,
      "Anti": 6945,
      "angle": 6946,
      "helmet": 6947,
      "numbered": 6948,
      "covers": 6949,
      "simultane": 6950,
      "Mega": 6951,
      "Canterbury": 6952,
      "periods": 6953,
      "factory": 6954,
      "limit": 6955,
      "Space": 6956,
      "voiced": 6957,
      "Barbar": 6958,
      "iterranean": 6959,
      "streak": 6960,
      "needs": 6961,
      "appointment": 6962,
      "Phillies": 6963,
      "defeating": 6964,
      "reveals": 6965,
      "narrative": 6966,
      "Mediterranean": 6967,
      "committed": 6968,
      "Malay": 6969,
      "Enterprise": 6970,
      "purchase": 6971,
      "camera": 6972,
      "1920s": 6973,
      "Palestine": 6974,
      "Athletic": 6975,
      "preferred": 6976,
      "Aerith": 6977,
      "survivors": 6978,
      "resources": 6979,
      "concerts": 6980,
      "Bark": 6981,
      "Corn": 6982,
      "DC": 6983,
      "Furt": 6984,
      "Late": 6985,
      "Loc": 6986,
      "Link": 6987,
      "Labor": 6988,
      "Nick": 6989,
      "Pass": 6990,
      "Rug": 6991,
      "Stop": 6992,
      "U2": 6993,
      "Wic": 6994,
      "cular": 6995,
      "py": 6996,
      "ridge": 6997,
      "tick": 6998,
      "ths": 6999,
      "onna": 7000,
      "onica": 7001,
      "remin": 7002,
      "represents": 7003,
      "atom": 7004,
      "enic": 7005,
      "esi": 7006,
      "illy": 7007,
      "ches": 7008,
      "demo": 7009,
      "elabor": 7010,
      "abilities": 7011,
      "provin": 7012,
      "atech": 7013,
      "exit": 7014,
      "graf": 7015,
      "anyon": 7016,
      "annah": 7017,
      "products": 7018,
      "followers": 7019,
      "ropol": 7020,
      "helic": 7021,
      "parish": 7022,
      "consult": 7023,
      "operating": 7024,
      "steel": 7025,
      "Gray": 7026,
      "considers": 7027,
      "refers": 7028,
      "communication": 7029,
      "tests": 7030,
      "criticised": 7031,
      "influences": 7032,
      "borne": 7033,
      "doesn": 7034,
      "Championships": 7035,
      "Markgraf": 7036,
      "installed": 7037,
      "closer": 7038,
      "feelings": 7039,
      "visitors": 7040,
      "Cathedral": 7041,
      "atoon": 7042,
      "hundreds": 7043,
      "absence": 7044,
      "pupils": 7045,
      "legislation": 7046,
      "proposal": 7047,
      "deployed": 7048,
      "texts": 7049,
      "arrested": 7050,
      "thews": 7051,
      "Raffles": 7052,
      "astronom": 7053,
      "Grammy": 7054,
      "genetic": 7055,
      "rugby": 7056,
      "municipal": 7057,
      "dialogue": 7058,
      "Colorado": 7059,
      "Furtado": 7060,
      "Rugby": 7061,
      "Ash": 7062,
      "Cop": 7063,
      "CBS": 7064,
      "Dark": 7065,
      "Mand": 7066,
      "Mel": 7067,
      "Tal": 7068,
      "Usta": 7069,
      "bits": 7070,
      "card": 7071,
      "cold": 7072,
      "pure": 7073,
      "yo": 7074,
      "ár": 7075,
      "remark": 7076,
      "ensure": 7077,
      "stance": 7078,
      "amino": 7079,
      "deem": 7080,
      "comed": 7081,
      "option": 7082,
      "lium": 7083,
      "diag": 7084,
      "feed": 7085,
      "manuscript": 7086,
      "prerogative": 7087,
      "displays": 7088,
      "weigh": 7089,
      "internal": 7090,
      "Along": 7091,
      "venues": 7092,
      "Sholay": 7093,
      "cars": 7094,
      "extent": 7095,
      "trading": 7096,
      "classic": 7097,
      "Organ": 7098,
      "styles": 7099,
      "Techn": 7100,
      "Earl": 7101,
      "ugal": 7102,
      "ullen": 7103,
      "researchers": 7104,
      "poorly": 7105,
      "stationed": 7106,
      "Prior": 7107,
      "moments": 7108,
      "Special": 7109,
      "joining": 7110,
      "Imperial": 7111,
      "drums": 7112,
      "huge": 7113,
      "behaviour": 7114,
      "NHL": 7115,
      "reconnaissance": 7116,
      "convection": 7117,
      "Dominican": 7118,
      "Satur": 7119,
      "submarine": 7120,
      "Krak": 7121,
      "infrastru": 7122,
      "Development": 7123,
      "Fernand": 7124,
      "muscaria": 7125,
      "Ustaš": 7126,
      "91": 7127,
      "Bed": 7128,
      "Cha": 7129,
      "Cape": 7130,
      "Hob": 7131,
      "MO": 7132,
      "Sher": 7133,
      "Tig": 7134,
      "Treat": 7135,
      "Ut": 7136,
      "blow": 7137,
      "gie": 7138,
      "grown": 7139,
      "mud": 7140,
      "saves": 7141,
      "sunk": 7142,
      "ule": 7143,
      "uous": 7144,
      "orbit": 7145,
      "toll": 7146,
      "entitled": 7147,
      "impression": 7148,
      "owie": 7149,
      "cement": 7150,
      "withdrew": 7151,
      "abund": 7152,
      "aka": 7153,
      "istan": 7154,
      "creek": 7155,
      "brig": 7156,
      "interpret": 7157,
      "Alf": 7158,
      "annually": 7159,
      "phr": 7160,
      "charged": 7161,
      "product": 7162,
      "useful": 7163,
      "15th": 7164,
      "1940s": 7165,
      "memory": 7166,
      "ologists": 7167,
      "transition": 7168,
      "soul": 7169,
      "fallen": 7170,
      "influential": 7171,
      "streets": 7172,
      "posted": 7173,
      "burgh": 7174,
      "telling": 7175,
      "purposes": 7176,
      "garian": 7177,
      "Maggie": 7178,
      "driven": 7179,
      "Mexican": 7180,
      "injuries": 7181,
      "dynam": 7182,
      "dynasty": 7183,
      "extension": 7184,
      "exerc": 7185,
      "dramatic": 7186,
      "DAG": 7187,
      "modified": 7188,
      "iques": 7189,
      "overwhel": 7190,
      "58": 7191,
      "Bass": 7192,
      "Bos": 7193,
      "DH": 7194,
      "Fron": 7195,
      "Hud": 7196,
      "Hok": 7197,
      "Jenn": 7198,
      "Now": 7199,
      "SS": 7200,
      "Sand": 7201,
      "foss": 7202,
      "hot": 7203,
      "jam": 7204,
      "ske": 7205,
      "tight": 7206,
      "uset": 7207,
      "vati": 7208,
      "informed": 7209,
      "anth": 7210,
      "restrict": 7211,
      "ora": 7212,
      "ammun": 7213,
      "chess": 7214,
      "ows": 7215,
      "cong": 7216,
      "convers": 7217,
      "1928": 7218,
      "cler": 7219,
      "trained": 7220,
      "express": 7221,
      "ishment": 7222,
      "mann": 7223,
      "actual": 7224,
      "achuset": 7225,
      "otherwise": 7226,
      "ivity": 7227,
      "scop": 7228,
      "noon": 7229,
      "shipping": 7230,
      "ogy": 7231,
      "flash": 7232,
      "column": 7233,
      "writings": 7234,
      "saved": 7235,
      "crake": 7236,
      "doct": 7237,
      "subspecies": 7238,
      "Norway": 7239,
      "originated": 7240,
      "engines": 7241,
      "Construction": 7242,
      "readers": 7243,
      "organised": 7244,
      "bands": 7245,
      "Parvati": 7246,
      "traits": 7247,
      "factors": 7248,
      "kingdom": 7249,
      "suggesting": 7250,
      "howitz": 7251,
      "interests": 7252,
      "burned": 7253,
      "Key": 7254,
      "crosses": 7255,
      "materials": 7256,
      "spoke": 7257,
      "altern": 7258,
      "watching": 7259,
      "panel": 7260,
      "Israeli": 7261,
      "severely": 7262,
      "apparently": 7263,
      "chairman": 7264,
      "journalist": 7265,
      "dinosaur": 7266,
      "happened": 7267,
      "Massachuset": 7268,
      "picture": 7269,
      "custom": 7270,
      "jackrab": 7271,
      "doubt": 7272,
      "Réunion": 7273,
      "circumstances": 7274,
      "exposure": 7275,
      "Barker": 7276,
      "helicop": 7277,
      "ammunition": 7278,
      "Massachusetts": 7279,
      "74": 7280,
      "82": 7281,
      "Branch": 7282,
      "Es": 7283,
      "Eaton": 7284,
      "Found": 7285,
      "Federal": 7286,
      "Gate": 7287,
      "Gary": 7288,
      "Gwen": 7289,
      "Hamp": 7290,
      "Having": 7291,
      "IA": 7292,
      "Kann": 7293,
      "RAAF": 7294,
      "Ton": 7295,
      "cli": 7296,
      "citing": 7297,
      "festival": 7298,
      "gate": 7299,
      "lav": 7300,
      "mates": 7301,
      "rants": 7302,
      "insist": 7303,
      "rets": 7304,
      "oral": 7305,
      "heera": 7306,
      "acle": 7307,
      "ilst": 7308,
      "impossible": 7309,
      "convict": 7310,
      "aga": 7311,
      "1927": 7312,
      "utz": 7313,
      "abol": 7314,
      "ables": 7315,
      "expression": 7316,
      "overseas": 7317,
      "oured": 7318,
      "partially": 7319,
      "recur": 7320,
      "disaster": 7321,
      "elled": 7322,
      "understood": 7323,
      "cancer": 7324,
      "mixture": 7325,
      "engage": 7326,
      "starlings": 7327,
      "valid": 7328,
      "causes": 7329,
      "140": 7330,
      "carved": 7331,
      "latex": 7332,
      "restling": 7333,
      "Wilson": 7334,
      "Guide": 7335,
      "generals": 7336,
      "urricanes": 7337,
      "movements": 7338,
      "Portugal": 7339,
      "radiation": 7340,
      "victories": 7341,
      "burning": 7342,
      "Richmond": 7343,
      "Corpor": 7344,
      "survive": 7345,
      "Ministry": 7346,
      "belt": 7347,
      "audio": 7348,
      "Media": 7349,
      "departure": 7350,
      "instruments": 7351,
      "shells": 7352,
      "Historic": 7353,
      "Swedish": 7354,
      "tavāda": 7355,
      "resistance": 7356,
      "substantial": 7357,
      "Patty": 7358,
      "kāntavāda": 7359,
      "Ustaše": 7360,
      "Kannada": 7361,
      "67": 7362,
      "92": 7363,
      "Ball": 7364,
      "Baker": 7365,
      "Bureau": 7366,
      "CO": 7367,
      "Elect": 7368,
      "Eagle": 7369,
      "Khand": 7370,
      "Midge": 7371,
      "Masters": 7372,
      "Már": 7373,
      "Pict": 7374,
      "Sis": 7375,
      "Yug": 7376,
      "bom": 7377,
      "cot": 7378,
      "dangerous": 7379,
      "lad": 7380,
      "nut": 7381,
      "tale": 7382,
      "zac": 7383,
      "ano": 7384,
      "eras": 7385,
      "rever": 7386,
      "arp": 7387,
      "itated": 7388,
      "illi": 7389,
      "amin": 7390,
      "aments": 7391,
      "wasn": 7392,
      "chrom": 7393,
      "unlike": 7394,
      "resigned": 7395,
      "compete": 7396,
      "plus": 7397,
      "diet": 7398,
      "Ing": 7399,
      "aku": 7400,
      "persu": 7401,
      "spend": 7402,
      "afterwards": 7403,
      "commem": 7404,
      "temples": 7405,
      "elev": 7406,
      "ithic": 7407,
      "musician": 7408,
      "tribute": 7409,
      "disturb": 7410,
      "USD": 7411,
      "asks": 7412,
      "claiming": 7413,
      "1933": 7414,
      "Stewart": 7415,
      "quez": 7416,
      "marry": 7417,
      "graphics": 7418,
      "barr": 7419,
      "Police": 7420,
      "looks": 7421,
      "interesting": 7422,
      "techniques": 7423,
      "electronic": 7424,
      "models": 7425,
      "engineers": 7426,
      "thinking": 7427,
      "spores": 7428,
      "Veronica": 7429,
      "establishing": 7430,
      "instance": 7431,
      "documents": 7432,
      "Howe": 7433,
      "opportunities": 7434,
      "struggle": 7435,
      "nickn": 7436,
      "climate": 7437,
      "windows": 7438,
      "aggressive": 7439,
      "restored": 7440,
      "premiered": 7441,
      "beautiful": 7442,
      "supporters": 7443,
      "restricted": 7444,
      "absolute": 7445,
      "Khandoba": 7446,
      "Márquez": 7447,
      "Yugos": 7448,
      "Bath": 7449,
      "Fa": 7450,
      "FRE": 7451,
      "Ga": 7452,
      "Hg": 7453,
      "Jr": 7454,
      "Kit": 7455,
      "Last": 7456,
      "Lith": 7457,
      "Matt": 7458,
      "Nad": 7459,
      "NDH": 7460,
      "Wright": 7461,
      "eat": 7462,
      "ias": 7463,
      "pale": 7464,
      "sale": 7465,
      "invent": 7466,
      "inHg": 7467,
      "remember": 7468,
      "ensu": 7469,
      "heat": 7470,
      "roit": 7471,
      "omura": 7472,
      "impressed": 7473,
      "otic": 7474,
      "util": 7475,
      "prove": 7476,
      "sher": 7477,
      "shock": 7478,
      "artificial": 7479,
      "lob": 7480,
      "quali": 7481,
      "notably": 7482,
      "grave": 7483,
      "iance": 7484,
      "kees": 7485,
      "Then": 7486,
      "merch": 7487,
      "coins": 7488,
      "interaction": 7489,
      "ryce": 7490,
      "Who": 7491,
      "iverse": 7492,
      "Josh": 7493,
      "offices": 7494,
      "designs": 7495,
      "venture": 7496,
      "talk": 7497,
      "Blu": 7498,
      "difference": 7499,
      "1957": 7500,
      "Soon": 7501,
      "21st": 7502,
      "productions": 7503,
      "experiences": 7504,
      "Township": 7505,
      "predomin": 7506,
      "recognised": 7507,
      "cules": 7508,
      "situated": 7509,
      "Toronto": 7510,
      "transportation": 7511,
      "divor": 7512,
      "Miller": 7513,
      "Justice": 7514,
      "weapon": 7515,
      "Robin": 7516,
      "spiritual": 7517,
      "elsewhere": 7518,
      "adventure": 7519,
      "Girls": 7520,
      "publisher": 7521,
      "minimum": 7522,
      "platform": 7523,
      "distinguished": 7524,
      "Jurchen": 7525,
      "criminal": 7526,
      "Phoenix": 7527,
      "Mulder": 7528,
      "retirement": 7529,
      "Mozambique": 7530,
      "LIMO": 7531,
      "Detroit": 7532,
      "acknowled": 7533,
      "atechism": 7534,
      "Saturday": 7535,
      "FRELIMO": 7536,
      "Lithuan": 7537,
      "900": 7538,
      "Bang": 7539,
      "Benn": 7540,
      "Celt": 7541,
      "Dig": 7542,
      "Free": 7543,
      "Ira": 7544,
      "Jud": 7545,
      "Kim": 7546,
      "Kansas": 7547,
      "Kevin": 7548,
      "Pur": 7549,
      "Rest": 7550,
      "Sans": 7551,
      "Vice": 7552,
      "Wat": 7553,
      "barri": 7554,
      "fy": 7555,
      "fountain": 7556,
      "gri": 7557,
      "ios": 7558,
      "rus": 7559,
      "vor": 7560,
      "vast": 7561,
      "wings": 7562,
      "zen": 7563,
      "śni": 7564,
      "thy": 7565,
      "inet": 7566,
      "instru": 7567,
      "remarked": 7568,
      "oux": 7569,
      "sevent": 7570,
      "selection": 7571,
      "resign": 7572,
      "ette": 7573,
      "mental": 7574,
      "earning": 7575,
      "ava": 7576,
      "format": 7577,
      "1850": 7578,
      "iven": 7579,
      "pressing": 7580,
      "rank": 7581,
      "brick": 7582,
      "costs": 7583,
      "retreat": 7584,
      "gene": 7585,
      "founder": 7586,
      "170": 7587,
      "consci": 7588,
      "starred": 7589,
      "cleared": 7590,
      "westward": 7591,
      "depending": 7592,
      "depicts": 7593,
      "See": 7594,
      "atherine": 7595,
      "characterized": 7596,
      "counties": 7597,
      "Christop": 7598,
      "approval": 7599,
      "Scully": 7600,
      "formerly": 7601,
      "communications": 7602,
      "Barry": 7603,
      "frig": 7604,
      "Moore": 7605,
      "Perfect": 7606,
      "networks": 7607,
      "programme": 7608,
      "burial": 7609,
      "Off": 7610,
      "copy": 7611,
      "Minor": 7612,
      "measured": 7613,
      "objective": 7614,
      "Russia": 7615,
      "biggest": 7616,
      "locks": 7617,
      "suitable": 7618,
      "vehicle": 7619,
      "excavation": 7620,
      "Bulls": 7621,
      "delayed": 7622,
      "ordinary": 7623,
      "Journey": 7624,
      "tanks": 7625,
      "giant": 7626,
      "Coleman": 7627,
      "Gilbert": 7628,
      "Wiśni": 7629,
      "convinced": 7630,
      "appropriate": 7631,
      "infrastructure": 7632,
      "owiecki": 7633,
      "Front": 7634,
      "Hudson": 7635,
      "Wiśniowiecki": 7636,
      "Avi": 7637,
      "Imag": 7638,
      "Jac": 7639,
      "Oscar": 7640,
      "Rand": 7641,
      "Rap": 7642,
      "Sid": 7643,
      "gard": 7644,
      "hunting": 7645,
      "mam": 7646,
      "pist": 7647,
      "sul": 7648,
      "slip": 7649,
      "skills": 7650,
      "uable": 7651,
      "thic": 7652,
      "inher": 7653,
      "inscription": 7654,
      "sters": 7655,
      "stick": 7656,
      "ingly": 7657,
      "heim": 7658,
      "enters": 7659,
      "iland": 7660,
      "determ": 7661,
      "conservation": 7662,
      "usage": 7663,
      "otal": 7664,
      "rific": 7665,
      "ribute": 7666,
      "1926": 7667,
      "residence": 7668,
      "compos": 7669,
      "summ": 7670,
      "akota": 7671,
      "los": 7672,
      "afford": 7673,
      "Stories": 7674,
      "compound": 7675,
      "assador": 7676,
      "displayed": 7677,
      "Anzac": 7678,
      "amps": 7679,
      "regist": 7680,
      "Arsen": 7681,
      "describe": 7682,
      "decides": 7683,
      "Warren": 7684,
      "chell": 7685,
      "check": 7686,
      "differences": 7687,
      "Canal": 7688,
      "falls": 7689,
      "dense": 7690,
      "collect": 7691,
      "striking": 7692,
      "clearly": 7693,
      "closest": 7694,
      "Magdal": 7695,
      "predators": 7696,
      "audiences": 7697,
      "housing": 7698,
      "scriptions": 7699,
      "altered": 7700,
      "ranging": 7701,
      "properties": 7702,
      "Republican": 7703,
      "closure": 7704,
      "avalry": 7705,
      "itzer": 7706,
      "FIFA": 7707,
      "reservo": 7708,
      "biograph": 7709,
      "Mrs": 7710,
      "Trek": 7711,
      "Memorial": 7712,
      "opponent": 7713,
      "restoration": 7714,
      "graduate": 7715,
      "Originally": 7716,
      "Silver": 7717,
      "Nevertheless": 7718,
      "Albums": 7719,
      "crops": 7720,
      "reinforcements": 7721,
      "benefit": 7722,
      "Persian": 7723,
      "predecessor": 7724,
      "Initially": 7725,
      "rhythm": 7726,
      "Territory": 7727,
      "feathers": 7728,
      "Hokies": 7729,
      "determine": 7730,
      "Arsenal": 7731,
      "07": 7732,
      "99": 7733,
      "Category": 7734,
      "ISB": 7735,
      "Plan": 7736,
      "Rain": 7737,
      "Wild": 7738,
      "Witch": 7739,
      "hid": 7740,
      "ito": 7741,
      "pus": 7742,
      "slide": 7743,
      "onic": 7744,
      "onia": 7745,
      "stab": 7746,
      "adm": 7747,
      "oming": 7748,
      "urs": 7749,
      "degre": 7750,
      "imprison": 7751,
      "unes": 7752,
      "plom": 7753,
      "diplom": 7754,
      "artwork": 7755,
      "grade": 7756,
      "Chagas": 7757,
      "attained": 7758,
      "creative": 7759,
      "guil": 7760,
      "ranking": 7761,
      "ranges": 7762,
      "Until": 7763,
      "anyone": 7764,
      "buoy": 7765,
      "regiment": 7766,
      "anges": 7767,
      "elections": 7768,
      "thereafter": 7769,
      "arrive": 7770,
      "choir": 7771,
      "promised": 7772,
      "defending": 7773,
      "childhood": 7774,
      "commandment": 7775,
      "Mathews": 7776,
      "Cook": 7777,
      "moderate": 7778,
      "representative": 7779,
      "1905": 7780,
      "ruling": 7781,
      "Express": 7782,
      "respective": 7783,
      "Abby": 7784,
      "ucky": 7785,
      "Valky": 7786,
      "Rocky": 7787,
      "argues": 7788,
      "violent": 7789,
      "install": 7790,
      "preparation": 7791,
      "occupation": 7792,
      "nationally": 7793,
      "favorable": 7794,
      "Malley": 7795,
      "Turks": 7796,
      "Trib": 7797,
      "badly": 7798,
      "Victorian": 7799,
      "scientists": 7800,
      "Protestant": 7801,
      "Communist": 7802,
      "behavior": 7803,
      "Confess": 7804,
      "Confeder": 7805,
      "alleged": 7806,
      "Chapel": 7807,
      "tunnel": 7808,
      "prompted": 7809,
      "Jonathan": 7810,
      "throne": 7811,
      "organisation": 7812,
      "exclusively": 7813,
      "Leslie": 7814,
      "false": 7815,
      "magnitude": 7816,
      "Kelly": 7817,
      "perspective": 7818,
      "ISBN": 7819,
      "degrees": 7820,
      "Valkyria": 7821,
      "84": 7822,
      "Dave": 7823,
      "Event": 7824,
      "EFA": 7825,
      "Gun": 7826,
      "Gra": 7827,
      "Hope": 7828,
      "Las": 7829,
      "Lover": 7830,
      "Lev": 7831,
      "Nam": 7832,
      "Rom": 7833,
      "Roc": 7834,
      "Sb": 7835,
      "UEFA": 7836,
      "Vul": 7837,
      "Yo": 7838,
      "bones": 7839,
      "caves": 7840,
      "dish": 7841,
      "dwar": 7842,
      "easy": 7843,
      "gates": 7844,
      "nations": 7845,
      "pes": 7846,
      "rator": 7847,
      "sid": 7848,
      "spr": 7849,
      "institution": 7850,
      "theater": 7851,
      "anthem": 7852,
      "rell": 7853,
      "icide": 7854,
      "adheera": 7855,
      "bear": 7856,
      "forth": 7857,
      "deity": 7858,
      "deleg": 7859,
      "rifle": 7860,
      "eline": 7861,
      "resumed": 7862,
      "erected": 7863,
      "liber": 7864,
      "poison": 7865,
      "exists": 7866,
      "akum": 7867,
      "outbreak": 7868,
      "manga": 7869,
      "earn": 7870,
      "prime": 7871,
      "desert": 7872,
      "braska": 7873,
      "interpre": 7874,
      "arious": 7875,
      "consol": 7876,
      "decay": 7877,
      "lanes": 7878,
      "Show": 7879,
      "sisters": 7880,
      "labe": 7881,
      "Carmel": 7882,
      "northward": 7883,
      "ibility": 7884,
      "Management": 7885,
      "handled": 7886,
      "Paraly": 7887,
      "Allen": 7888,
      "explains": 7889,
      "everyone": 7890,
      "Bertin": 7891,
      "Magadheera": 7892,
      "Nebraska": 7893,
      "crews": 7894,
      "engineer": 7895,
      "amounts": 7896,
      "injured": 7897,
      "boundary": 7898,
      "bowl": 7899,
      "Glad": 7900,
      "colonies": 7901,
      "rupted": 7902,
      "celebrated": 7903,
      "preced": 7904,
      "powered": 7905,
      "beaten": 7906,
      "Cheval": 7907,
      "Waterfall": 7908,
      "Outstanding": 7909,
      "corner": 7910,
      "architecture": 7911,
      "advertising": 7912,
      "ethnic": 7913,
      "bulk": 7914,
      "strengthened": 7915,
      "nurse": 7916,
      "Democratic": 7917,
      "adaptation": 7918,
      "Brooks": 7919,
      "inhabitants": 7920,
      "deemed": 7921,
      "Treaty": 7922,
      "qualified": 7923,
      "Iraq": 7924,
      "dwarf": 7925,
      "Paralymp": 7926,
      "113": 7927,
      "Budd": 7928,
      "Cur": 7929,
      "Catechism": 7930,
      "Da": 7931,
      "Ful": 7932,
      "Id": 7933,
      "Kn": 7934,
      "Kenn": 7935,
      "Mot": 7936,
      "Much": 7937,
      "Nar": 7938,
      "Nash": 7939,
      "Pryce": 7940,
      "Rem": 7941,
      "Such": 7942,
      "Voy": 7943,
      "avier": 7944,
      "bind": 7945,
      "banned": 7946,
      "driver": 7947,
      "fate": 7948,
      "fusion": 7949,
      "gap": 7950,
      "ji": 7951,
      "turb": 7952,
      "uge": 7953,
      "vina": 7954,
      "inje": 7955,
      "inhab": 7956,
      "inscriptions": 7957,
      "eration": 7958,
      "relie": 7959,
      "isation": 7960,
      "icate": 7961,
      "icia": 7962,
      "omtav": 7963,
      "bee": 7964,
      "impl": 7965,
      "wives": 7966,
      "uncertain": 7967,
      "concess": 7968,
      "condem": 7969,
      "1925": 7970,
      "1924": 7971,
      "neth": 7972,
      "exposed": 7973,
      "uding": 7974,
      "landings": 7975,
      "Stand": 7976,
      "Heaven": 7977,
      "partner": 7978,
      "okovic": 7979,
      "scattered": 7980,
      "Thus": 7981,
      "prep": 7982,
      "monuments": 7983,
      "visiting": 7984,
      "Ark": 7985,
      "govina": 7986,
      "recordings": 7987,
      "Asomtav": 7988,
      "substitute": 7989,
      "Beet": 7990,
      "warning": 7991,
      "steep": 7992,
      "designer": 7993,
      "fund": 7994,
      "fundam": 7995,
      "Herze": 7996,
      "casting": 7997,
      "breed": 7998,
      "elsen": 7999,
      "Davis": 8000,
      "consistent": 8001,
      "garrison": 8002,
      "Harold": 8003,
      "1890": 8004,
      "electron": 8005,
      "Madrid": 8006,
      "Business": 8007,
      "Emmy": 8008,
      "executed": 8009,
      "prevented": 8010,
      "application": 8011,
      "Rifles": 8012,
      "demonstrated": 8013,
      "settlements": 8014,
      "Djokovic": 8015,
      "judge": 8016,
      "demands": 8017,
      "fitted": 8018,
      "walk": 8019,
      "distinctive": 8020,
      "excavations": 8021,
      "Build": 8022,
      "pursue": 8023,
      "tactics": 8024,
      "turrets": 8025,
      "dominant": 8026,
      "strategy": 8027,
      "Railway": 8028,
      "Nielsen": 8029,
      "WASP": 8030,
      "Yankees": 8031,
      "Organization": 8032,
      "Asomtavruli": 8033,
      "Herzegovina": 8034,
      "05": 8035,
      "Bible": 8036,
      "Hou": 8037,
      "Kong": 8038,
      "Lower": 8039,
      "MI": 8040,
      "Shad": 8041,
      "Shel": 8042,
      "Women": 8043,
      "mac": 8044,
      "patch": 8045,
      "pounds": 8046,
      "tle": 8047,
      "zes": 8048,
      "inno": 8049,
      "edges": 8050,
      "reci": 8051,
      "essee": 8052,
      "lev": 8053,
      "ilation": 8054,
      "beam": 8055,
      "forty": 8056,
      "chi": 8057,
      "constitution": 8058,
      "ctic": 8059,
      "teor": 8060,
      "proto": 8061,
      "antly": 8062,
      "feels": 8063,
      "gry": 8064,
      "grid": 8065,
      "aust": 8066,
      "ignment": 8067,
      "intent": 8068,
      "afternoon": 8069,
      "centers": 8070,
      "Those": 8071,
      "raising": 8072,
      "coin": 8073,
      "charity": 8074,
      "drain": 8075,
      "releases": 8076,
      "arrior": 8077,
      "Dean": 8078,
      "downtown": 8079,
      "succeed": 8080,
      "continental": 8081,
      "dams": 8082,
      "portrait": 8083,
      "triple": 8084,
      "cargo": 8085,
      "hypo": 8086,
      "azines": 8087,
      "1934": 8088,
      "mbar": 8089,
      "magazines": 8090,
      "Peters": 8091,
      "amongst": 8092,
      "household": 8093,
      "profile": 8094,
      "sounds": 8095,
      "Berlin": 8096,
      "residential": 8097,
      "Anglo": 8098,
      "assisted": 8099,
      "Jews": 8100,
      "Madison": 8101,
      "discuss": 8102,
      "Congo": 8103,
      "considering": 8104,
      "archaeologist": 8105,
      "satell": 8106,
      "keeping": 8107,
      "subjects": 8108,
      "boxing": 8109,
      "indicating": 8110,
      "tournaments": 8111,
      "emergency": 8112,
      "Tennessee": 8113,
      "Langu": 8114,
      "initiated": 8115,
      "defenders": 8116,
      "translation": 8117,
      "Independence": 8118,
      "Original": 8119,
      "sacred": 8120,
      "duty": 8121,
      "premiere": 8122,
      "collaboration": 8123,
      "smooth": 8124,
      "philosophy": 8125,
      "Murray": 8126,
      "suspended": 8127,
      "scheme": 8128,
      "martial": 8129,
      "Alfred": 8130,
      "congreg": 8131,
      "Corporation": 8132,
      "commemor": 8133,
      "Celtic": 8134,
      "Houston": 8135,
      "08": 8136,
      "1000": 8137,
      "86": 8138,
      "Aman": 8139,
      "Again": 8140,
      "Denn": 8141,
      "Esh": 8142,
      "Kurt": 8143,
      "Nel": 8144,
      "Next": 8145,
      "Naval": 8146,
      "Twent": 8147,
      "Ur": 8148,
      "Wu": 8149,
      "Wag": 8150,
      "Xenon": 8151,
      "cous": 8152,
      "ffield": 8153,
      "kne": 8154,
      "tario": 8155,
      "wan": 8156,
      "analy": 8157,
      "rene": 8158,
      "rebuilt": 8159,
      "encing": 8160,
      "isis": 8161,
      "tot": 8162,
      "toured": 8163,
      "roots": 8164,
      "chamber": 8165,
      "ceased": 8166,
      "ressing": 8167,
      "opt": 8168,
      "neath": 8169,
      "sible": 8170,
      "ills": 8171,
      "enden": 8172,
      "portions": 8173,
      "disband": 8174,
      "scorer": 8175,
      "Ant": 8176,
      "Ontario": 8177,
      "crisis": 8178,
      "receives": 8179,
      "ologies": 8180,
      "poll": 8181,
      "Sheffield": 8182,
      "Mariana": 8183,
      "Grade": 8184,
      "servative": 8185,
      "variation": 8186,
      "talking": 8187,
      "ordering": 8188,
      "realized": 8189,
      "colleagues": 8190,
      "Romanian": 8191,
      "tested": 8192,
      "testing": 8193,
      "bases": 8194,
      "1908": 8195,
      "Mountains": 8196,
      "reducing": 8197,
      "fifty": 8198,
      "employment": 8199,
      "conclusion": 8200,
      "SAS": 8201,
      "reveal": 8202,
      "Swiss": 8203,
      "Priest": 8204,
      "deliber": 8205,
      "delivery": 8206,
      "quarterback": 8207,
      "definition": 8208,
      "frequent": 8209,
      "biographer": 8210,
      "Belg": 8211,
      "northeastern": 8212,
      "requested": 8213,
      "Overall": 8214,
      "bombard": 8215,
      "schedule": 8216,
      "Giants": 8217,
      "Finals": 8218,
      "Hawaii": 8219,
      "manufactur": 8220,
      "fatal": 8221,
      "Cubs": 8222,
      "Village": 8223,
      "Network": 8224,
      "stellar": 8225,
      "simultaneously": 8226,
      "Wicca": 8227,
      "Imagine": 8228,
      "guilty": 8229,
      "Chevaliers": 8230,
      "Eshmun": 8231,
      "Wagner": 8232,
      "AT": 8233,
      "Ace": 8234,
      "Amy": 8235,
      "ABC": 8236,
      "Asian": 8237,
      "Benj": 8238,
      "Dev": 8239,
      "Div": 8240,
      "Dog": 8241,
      "Dakota": 8242,
      "Fel": 8243,
      "Ghost": 8244,
      "Labour": 8245,
      "Mach": 8246,
      "Oreg": 8247,
      "Omar": 8248,
      "PC": 8249,
      "Ple": 8250,
      "Peach": 8251,
      "Rul": 8252,
      "Tro": 8253,
      "VII": 8254,
      "Win": 8255,
      "Wis": 8256,
      "cock": 8257,
      "fest": 8258,
      "gars": 8259,
      "iet": 8260,
      "sad": 8261,
      "vul": 8262,
      "vals": 8263,
      "yield": 8264,
      "intel": 8265,
      "ension": 8266,
      "ofess": 8267,
      "icit": 8268,
      "helium": 8269,
      "adier": 8270,
      "terror": 8271,
      "constitut": 8272,
      "aganda": 8273,
      "ulu": 8274,
      "1923": 8275,
      "oples": 8276,
      "peaking": 8277,
      "trick": 8278,
      "emp": 8279,
      "loved": 8280,
      "Stav": 8281,
      "ptions": 8282,
      "spots": 8283,
      "guide": 8284,
      "Anne": 8285,
      "Ancient": 8286,
      "obvious": 8287,
      "relations": 8288,
      "Leigh": 8289,
      "mathem": 8290,
      "operates": 8291,
      "runners": 8292,
      "metre": 8293,
      "Season": 8294,
      "Carre": 8295,
      "gets": 8296,
      "aski": 8297,
      "Christine": 8298,
      "sentences": 8299,
      "Clint": 8300,
      "refuge": 8301,
      "rounds": 8302,
      "Profess": 8303,
      "Tracy": 8304,
      "shoulder": 8305,
      "tooth": 8306,
      "skull": 8307,
      "Harrison": 8308,
      "fifteen": 8309,
      "Evans": 8310,
      "culmin": 8311,
      "Hills": 8312,
      "potentially": 8313,
      "jobs": 8314,
      "newspapers": 8315,
      "kilome": 8316,
      "Caes": 8317,
      "withdrawal": 8318,
      "molecules": 8319,
      "Hawaiian": 8320,
      "rhyme": 8321,
      "mechanical": 8322,
      "collapsed": 8323,
      "eliminated": 8324,
      "components": 8325,
      "assassination": 8326,
      "accurate": 8327,
      "assembled": 8328,
      "Pulaski": 8329,
      "employees": 8330,
      "Rhys": 8331,
      "citizens": 8332,
      "Education": 8333,
      "Queensland": 8334,
      "elaborate": 8335,
      "phrase": 8336,
      "skele": 8337,
      "Eventually": 8338,
      "Benjamin": 8339,
      "Oregon": 8340,
      "intellect": 8341,
      "68": 8342,
      "AC": 8343,
      "Bren": 8344,
      "Case": 8345,
      "Canyon": 8346,
      "Eric": 8347,
      "Fig": 8348,
      "Jen": 8349,
      "Pow": 8350,
      "Prest": 8351,
      "Sem": 8352,
      "Terror": 8353,
      "Vis": 8354,
      "WC": 8355,
      "Wing": 8356,
      "aire": 8357,
      "bac": 8358,
      "lon": 8359,
      "laugh": 8360,
      "sin": 8361,
      "sang": 8362,
      "uer": 8363,
      "uit": 8364,
      "youn": 8365,
      "ön": 8366,
      "inian": 8367,
      "remove": 8368,
      "atropical": 8369,
      "orient": 8370,
      "stall": 8371,
      "stores": 8372,
      "iso": 8373,
      "isle": 8374,
      "acids": 8375,
      "iling": 8376,
      "det": 8377,
      "agod": 8378,
      "ride": 8379,
      "apore": 8380,
      "eties": 8381,
      "uty": 8382,
      "umin": 8383,
      "umns": 8384,
      "clust": 8385,
      "artistic": 8386,
      "embr": 8387,
      "essay": 8388,
      "acked": 8389,
      "ights": 8390,
      "avo": 8391,
      "1830": 8392,
      "contribution": 8393,
      "adequ": 8394,
      "rice": 8395,
      "raia": 8396,
      "mines": 8397,
      "izon": 8398,
      "osex": 8399,
      "angered": 8400,
      "coln": 8401,
      "columns": 8402,
      "iff": 8403,
      "effic": 8404,
      "ernon": 8405,
      "suburb": 8406,
      "parody": 8407,
      "Conservation": 8408,
      "Marg": 8409,
      "Section": 8410,
      "14th": 8411,
      "ibis": 8412,
      "asking": 8413,
      "Guard": 8414,
      "sentiment": 8415,
      "personality": 8416,
      "Web": 8417,
      "putting": 8418,
      "referring": 8419,
      "Trust": 8420,
      "structural": 8421,
      "directors": 8422,
      "Africaine": 8423,
      "posts": 8424,
      "Program": 8425,
      "slop": 8426,
      "compliment": 8427,
      "Valve": 8428,
      "atinum": 8429,
      "machines": 8430,
      "boundaries": 8431,
      "spacecraft": 8432,
      "Singapore": 8433,
      "Woodhouse": 8434,
      "bene": 8435,
      "classification": 8436,
      "Commons": 8437,
      "documented": 8438,
      "steps": 8439,
      "advancing": 8440,
      "neighbour": 8441,
      "translated": 8442,
      "seeking": 8443,
      "drove": 8444,
      "Korea": 8445,
      "environmental": 8446,
      "comparison": 8447,
      "Sorraia": 8448,
      "extratropical": 8449,
      "dispute": 8450,
      "trouble": 8451,
      "descend": 8452,
      "Supreme": 8453,
      "Lincoln": 8454,
      "Similarly": 8455,
      "surgery": 8456,
      "theatrical": 8457,
      "imetres": 8458,
      "Islamic": 8459,
      "Foundation": 8460,
      "Sisler": 8461,
      "Christopher": 8462,
      "youngest": 8463,
      "09": 8464,
      "83": 8465,
      "Av": 8466,
      "Amb": 8467,
      "Bad": 8468,
      "Bidd": 8469,
      "Cress": 8470,
      "Cullen": 8471,
      "Dor": 8472,
      "Die": 8473,
      "EA": 8474,
      "Face": 8475,
      "Farm": 8476,
      "Grom": 8477,
      "Gib": 8478,
      "Hans": 8479,
      "Jard": 8480,
      "Jason": 8481,
      "Know": 8482,
      "Lud": 8483,
      "Lost": 8484,
      "Nett": 8485,
      "Publ": 8486,
      "WN": 8487,
      "cave": 8488,
      "dney": 8489,
      "eter": 8490,
      "fishing": 8491,
      "flies": 8492,
      "krit": 8493,
      "lu": 8494,
      "ography": 8495,
      "sper": 8496,
      "sample": 8497,
      "tub": 8498,
      "zo": 8499,
      "inals": 8500,
      "thes": 8501,
      "revised": 8502,
      "enzy": 8503,
      "stim": 8504,
      "lee": 8505,
      "acru": 8506,
      "sect": 8507,
      "bears": 8508,
      "ola": 8509,
      "oli": 8510,
      "unch": 8511,
      "etime": 8512,
      "library": 8513,
      "dith": 8514,
      "excell": 8515,
      "ears": 8516,
      "twin": 8517,
      "notice": 8518,
      "string": 8519,
      "gray": 8520,
      "Champions": 8521,
      "pray": 8522,
      "iped": 8523,
      "worn": 8524,
      "spending": 8525,
      "inclusion": 8526,
      "bridges": 8527,
      "rend": 8528,
      "prev": 8529,
      "merged": 8530,
      "coord": 8531,
      "mont": 8532,
      "produces": 8533,
      "Where": 8534,
      "submitted": 8535,
      "anekāntavāda": 8536,
      "paras": 8537,
      "memb": 8538,
      "completing": 8539,
      "Wars": 8540,
      "trials": 8541,
      "lights": 8542,
      "ennium": 8543,
      "topped": 8544,
      "solar": 8545,
      "reaches": 8546,
      "rising": 8547,
      "personally": 8548,
      "explain": 8549,
      "armament": 8550,
      "reflected": 8551,
      "tours": 8552,
      "representation": 8553,
      "Together": 8554,
      "programming": 8555,
      "1907": 8556,
      "Edge": 8557,
      "Neil": 8558,
      "vertical": 8559,
      "circle": 8560,
      "acceptable": 8561,
      "professor": 8562,
      "temporarily": 8563,
      "swim": 8564,
      "switch": 8565,
      "conduct": 8566,
      "questions": 8567,
      "Prix": 8568,
      "Prize": 8569,
      "Veracru": 8570,
      "rays": 8571,
      "definite": 8572,
      "archaeology": 8573,
      "birthday": 8574,
      "balance": 8575,
      "expert": 8576,
      "Species": 8577,
      "766th": 8578,
      "sculptures": 8579,
      "Louisiana": 8580,
      "detected": 8581,
      "Furthermore": 8582,
      "Obser": 8583,
      "Gallery": 8584,
      "Children": 8585,
      "collapse": 8586,
      "Girl": 8587,
      "Briggs": 8588,
      "encountered": 8589,
      "Natural": 8590,
      "Chronicles": 8591,
      "battleships": 8592,
      "discipl": 8593,
      "Telugu": 8594,
      "removal": 8595,
      "Ingres": 8596,
      "Sanskrit": 8597,
      "prepare": 8598,
      "satellite": 8599,
      "Belgium": 8600,
      "Biddenden": 8601,
      "Cresswell": 8602,
      "Jardine": 8603,
      "Nettles": 8604,
      "Veracruz": 8605,
      "06": 8606,
      "Ders": 8607,
      "Dud": 8608,
      "Lane": 8609,
      "Mir": 8610,
      "Neves": 8611,
      "Por": 8612,
      "Sk": 8613,
      "Sony": 8614,
      "Ten": 8615,
      "Tok": 8616,
      "Vo": 8617,
      "Youth": 8618,
      "eign": 8619,
      "fault": 8620,
      "hin": 8621,
      "ifer": 8622,
      "zi": 8623,
      "indeed": 8624,
      "rep": 8625,
      "orious": 8626,
      "tox": 8627,
      "illegal": 8628,
      "amid": 8629,
      "urally": 8630,
      "irates": 8631,
      "olen": 8632,
      "uni": 8633,
      "consu": 8634,
      "1922": 8635,
      "shr": 8636,
      "shares": 8637,
      "shirt": 8638,
      "clin": 8639,
      "Chron": 8640,
      "prises": 8641,
      "ported": 8642,
      "updated": 8643,
      "upgraded": 8644,
      "ewise": 8645,
      "boys": 8646,
      "evident": 8647,
      "spin": 8648,
      "pressive": 8649,
      "meters": 8650,
      "scope": 8651,
      "ansfield": 8652,
      "prefect": 8653,
      "mainland": 8654,
      "minster": 8655,
      "ieth": 8656,
      "underwent": 8657,
      "canal": 8658,
      "highways": 8659,
      "publishing": 8660,
      "surve": 8661,
      "surge": 8662,
      "arriving": 8663,
      "Death": 8664,
      "choose": 8665,
      "enses": 8666,
      "smen": 8667,
      "pleasure": 8668,
      "weekly": 8669,
      "caster": 8670,
      "justice": 8671,
      "Westminster": 8672,
      "genera": 8673,
      "armored": 8674,
      "traded": 8675,
      "Social": 8676,
      "asteroid": 8677,
      "charted": 8678,
      "oxide": 8679,
      "Register": 8680,
      "agogue": 8681,
      "predict": 8682,
      "acycl": 8683,
      "harbour": 8684,
      "discussion": 8685,
      "closing": 8686,
      "objectives": 8687,
      "phoon": 8688,
      "biological": 8689,
      "Campbell": 8690,
      "credit": 8691,
      "investigation": 8692,
      "struggled": 8693,
      "sailed": 8694,
      "pulled": 8695,
      "junior": 8696,
      "pretty": 8697,
      "Ernest": 8698,
      "emphasis": 8699,
      "neutral": 8700,
      "elimin": 8701,
      "beliefs": 8702,
      "Sioux": 8703,
      "Michel": 8704,
      "wishes": 8705,
      "accomplish": 8706,
      "ARVN": 8707,
      "embarked": 8708,
      "demolished": 8709,
      "Pattycake": 8710,
      "Bennett": 8711,
      "Jacob": 8712,
      "hidden": 8713,
      "Amanita": 8714,
      "empire": 8715,
      "Clinton": 8716,
      "Dershowitz": 8717,
      "Dudley": 8718,
      "Nevesinje": 8719,
      "Chrono": 8720,
      "02": 8721,
      "360": 8722,
      "Az": 8723,
      "Cater": 8724,
      "Ey": 8725,
      "Ian": 8726,
      "Let": 8727,
      "Nic": 8728,
      "Plate": 8729,
      "Tony": 8730,
      "Usher": 8731,
      "Vic": 8732,
      "Wander": 8733,
      "Zanz": 8734,
      "bare": 8735,
      "categ": 8736,
      "fasc": 8737,
      "jew": 8738,
      "lined": 8739,
      "nels": 8740,
      "pace": 8741,
      "pages": 8742,
      "pione": 8743,
      "squ": 8744,
      "ware": 8745,
      "threw": 8746,
      "inations": 8747,
      "reforms": 8748,
      "enthus": 8749,
      "alpha": 8750,
      "assembly": 8751,
      "acles": 8752,
      "beings": 8753,
      "dean": 8754,
      "olithic": 8755,
      "whilst": 8756,
      "unnamed": 8757,
      "unlikely": 8758,
      "constit": 8759,
      "comfort": 8760,
      "umbus": 8761,
      "pest": 8762,
      "peoples": 8763,
      "shorter": 8764,
      "clay": 8765,
      "loose": 8766,
      "feeding": 8767,
      "quant": 8768,
      "upset": 8769,
      "finale": 8770,
      "brush": 8771,
      "origins": 8772,
      "successive": 8773,
      "starter": 8774,
      "starring": 8775,
      "presentation": 8776,
      "Ship": 8777,
      "Columbus": 8778,
      "USS": 8779,
      "publications": 8780,
      "aho": 8781,
      "eventual": 8782,
      "advice": 8783,
      "facts": 8784,
      "facility": 8785,
      "Weir": 8786,
      "margin": 8787,
      "Without": 8788,
      "Track": 8789,
      "22nd": 8790,
      "Charlot": 8791,
      "Parks": 8792,
      "tourist": 8793,
      "Compan": 8794,
      "Jackets": 8795,
      "oxy": 8796,
      "Keith": 8797,
      "Magic": 8798,
      "reduction": 8799,
      "Pohl": 8800,
      "carries": 8801,
      "Abbey": 8802,
      "certainly": 8803,
      "railroad": 8804,
      "Switzer": 8805,
      "Country": 8806,
      "1861": 8807,
      "daughters": 8808,
      "percentage": 8809,
      "administrative": 8810,
      "petition": 8811,
      "recovery": 8812,
      "punishment": 8813,
      "architectural": 8814,
      "wait": 8815,
      "southeastern": 8816,
      "rotation": 8817,
      "advertis": 8818,
      "aggreg": 8819,
      "measurements": 8820,
      "illustrated": 8821,
      "Argentine": 8822,
      "Defense": 8823,
      "resolution": 8824,
      "shift": 8825,
      "Sweden": 8826,
      "130th": 8827,
      "dispatch": 8828,
      "Kirk": 8829,
      "negotiations": 8830,
      "controller": 8831,
      "merely": 8832,
      "cinema": 8833,
      "neighborhood": 8834,
      "Mitchell": 8835,
      "WWF": 8836,
      "Indones": 8837,
      "ropolitan": 8838,
      "conversation": 8839,
      "Idaho": 8840,
      "Building": 8841,
      "Caesar": 8842,
      "Preston": 8843,
      "Wanderers": 8844,
      "Zanzib": 8845,
      "Charlotte": 8846,
      "Switzerland": 8847,
      "350": 8848,
      "73": 8849,
      "Bird": 8850,
      "Dover": 8851,
      "Dah": 8852,
      "Gro": 8853,
      "Herald": 8854,
      "Ky": 8855,
      "Main": 8856,
      "Pak": 8857,
      "Race": 8858,
      "Tales": 8859,
      "Trail": 8860,
      "Yellow": 8861,
      "bore": 8862,
      "duration": 8863,
      "gross": 8864,
      "lord": 8865,
      "oing": 8866,
      "pp": 8867,
      "rant": 8868,
      "sq": 8869,
      "uart": 8870,
      "vs": 8871,
      "iná": 8872,
      "anime": 8873,
      "onwards": 8874,
      "atically": 8875,
      "ori": 8876,
      "enem": 8877,
      "stin": 8878,
      "arro": 8879,
      "acute": 8880,
      "aming": 8881,
      "lyn": 8882,
      "chain": 8883,
      "chicks": 8884,
      "owa": 8885,
      "wider": 8886,
      "contrad": 8887,
      "confront": 8888,
      "iders": 8889,
      "plas": 8890,
      "suicide": 8891,
      "shut": 8892,
      "artney": 8893,
      "ongoing": 8894,
      "illness": 8895,
      "ishops": 8896,
      "lover": 8897,
      "odrom": 8898,
      "queen": 8899,
      "Stuart": 8900,
      "iao": 8901,
      "spel": 8902,
      "guy": 8903,
      "recall": 8904,
      "scr": 8905,
      "brain": 8906,
      "speaker": 8907,
      "buy": 8908,
      "themed": 8909,
      "Comple": 8910,
      "elevation": 8911,
      "supplement": 8912,
      "aley": 8913,
      "signs": 8914,
      "balls": 8915,
      "decisions": 8916,
      "oster": 8917,
      "reader": 8918,
      "Isesi": 8919,
      "Feel": 8920,
      "controls": 8921,
      "Heritage": 8922,
      "Christians": 8923,
      "construct": 8924,
      "Paramount": 8925,
      "advoc": 8926,
      "facil": 8927,
      "magnetic": 8928,
      "Interchange": 8929,
      "authorized": 8930,
      "significance": 8931,
      "Province": 8932,
      "mediate": 8933,
      "Walker": 8934,
      "YouTu": 8935,
      "offering": 8936,
      "helping": 8937,
      "Hoover": 8938,
      "Madero": 8939,
      "ffs": 8940,
      "synthe": 8941,
      "McCartney": 8942,
      "Belgian": 8943,
      "batteries": 8944,
      "ultimate": 8945,
      "devast": 8946,
      "Shaw": 8947,
      "Everton": 8948,
      "Upper": 8949,
      "waiting": 8950,
      "patterns": 8951,
      "Nazi": 8952,
      "Gardner": 8953,
      "pregnancy": 8954,
      "onomy": 8955,
      "travell": 8956,
      "travelled": 8957,
      "depicting": 8958,
      "Lessing": 8959,
      "gravity": 8960,
      "accompanying": 8961,
      "brigades": 8962,
      "Toniná": 8963,
      "cotton": 8964,
      "Nadal": 8965,
      "Twenty": 8966,
      "osexual": 8967,
      "enemies": 8968,
      "YouTube": 8969,
      "Ade": 8970,
      "Cab": 8971,
      "Cult": 8972,
      "Et": 8973,
      "Fem": 8974,
      "Fif": 8975,
      "Kate": 8976,
      "Khan": 8977,
      "Mk": 8978,
      "Mol": 8979,
      "Mix": 8980,
      "Vander": 8981,
      "category": 8982,
      "dod": 8983,
      "dles": 8984,
      "harm": 8985,
      "iently": 8986,
      "jury": 8987,
      "loud": 8988,
      "oh": 8989,
      "ois": 8990,
      "obl": 8991,
      "phe": 8992,
      "penter": 8993,
      "sic": 8994,
      "uation": 8995,
      "inery": 8996,
      "reh": 8997,
      "tern": 8998,
      "terrain": 8999,
      "conversion": 9000,
      "platoon": 9001,
      "umps": 9002,
      "liqu": 9003,
      "proportion": 9004,
      "truck": 9005,
      "exem": 9006,
      "losaurus": 9007,
      "permission": 9008,
      "overs": 9009,
      "timate": 9010,
      "compreh": 9011,
      "blaz": 9012,
      "Heart": 9013,
      "Health": 9014,
      "scrap": 9015,
      "code": 9016,
      "shear": 9017,
      "Allosaurus": 9018,
      "tenth": 9019,
      "regul": 9020,
      "retre": 9021,
      "doors": 9022,
      "myst": 9023,
      "signal": 9024,
      "Work": 9025,
      "laide": 9026,
      "passion": 9027,
      "values": 9028,
      "Seattle": 9029,
      "requires": 9030,
      "aimed": 9031,
      "chest": 9032,
      "imeter": 9033,
      "Andre": 9034,
      "commands": 9035,
      "commanders": 9036,
      "similarly": 9037,
      "itarian": 9038,
      "historically": 9039,
      "searching": 9040,
      "1902": 9041,
      "hospit": 9042,
      "destroyer": 9043,
      "1895": 9044,
      "Corbet": 9045,
      "rocks": 9046,
      "connecting": 9047,
      "Sydney": 9048,
      "statistics": 9049,
      "pairs": 9050,
      "donated": 9051,
      "Centre": 9052,
      "Madonna": 9053,
      "Crusad": 9054,
      "freedom": 9055,
      "riding": 9056,
      "preparing": 9057,
      "execution": 9058,
      "indicates": 9059,
      "girls": 9060,
      "conflicts": 9061,
      "policies": 9062,
      "Delaware": 9063,
      "concentrated": 9064,
      "farmers": 9065,
      "phenomen": 9066,
      "Headquarters": 9067,
      "Critics": 9068,
      "cancelled": 9069,
      "segment": 9070,
      "Leonard": 9071,
      "universities": 9072,
      "dubbed": 9073,
      "exactly": 9074,
      "trapped": 9075,
      "hydrogen": 9076,
      "partnership": 9077,
      "decorated": 9078,
      "conventional": 9079,
      "doctrine": 9080,
      "Digital": 9081,
      "Arkansas": 9082,
      "fundamental": 9083,
      "Stavanger": 9084,
      "acyclic": 9085,
      "Adelaide": 9086,
      "Bald": 9087,
      "Canning": 9088,
      "Dum": 9089,
      "Ec": 9090,
      "Flo": 9091,
      "Food": 9092,
      "HNC": 9093,
      "List": 9094,
      "MV": 9095,
      "Morgan": 9096,
      "Nine": 9097,
      "Nav": 9098,
      "Panz": 9099,
      "Rick": 9100,
      "Sign": 9101,
      "danger": 9102,
      "ffl": 9103,
      "hen": 9104,
      "hPa": 9105,
      "ients": 9106,
      "nom": 9107,
      "nave": 9108,
      "ook": 9109,
      "rations": 9110,
      "sleep": 9111,
      "tissue": 9112,
      "vies": 9113,
      "wore": 9114,
      "ʻi": 9115,
      "inary": 9116,
      "infer": 9117,
      "reject": 9118,
      "touring": 9119,
      "ille": 9120,
      "seats": 9121,
      "beating": 9122,
      "beats": 9123,
      "chord": 9124,
      "vertex": 9125,
      "unclear": 9126,
      "convention": 9127,
      "byter": 9128,
      "otions": 9129,
      "appreci": 9130,
      "compositions": 9131,
      "abroad": 9132,
      "prosecut": 9133,
      "dium": 9134,
      "Inc": 9135,
      "atever": 9136,
      "illing": 9137,
      "afted": 9138,
      "herd": 9139,
      "Chen": 9140,
      "iang": 9141,
      "ranks": 9142,
      "disput": 9143,
      "osion": 9144,
      "intercept": 9145,
      "tenure": 9146,
      "rowed": 9147,
      "backing": 9148,
      "operas": 9149,
      "ballad": 9150,
      "transmission": 9151,
      "Beau": 9152,
      "Mars": 9153,
      "ashore": 9154,
      "characteristic": 9155,
      "functions": 9156,
      "ctoral": 9157,
      "Christi": 9158,
      "penet": 9159,
      "priv": 9160,
      "factor": 9161,
      "fewer": 9162,
      "Dynasty": 9163,
      "Maur": 9164,
      "strongest": 9165,
      "Internet": 9166,
      "friendly": 9167,
      "Serbs": 9168,
      "failing": 9169,
      "scribed": 9170,
      "pursuit": 9171,
      "sket": 9172,
      "affili": 9173,
      "Harry": 9174,
      "Corpus": 9175,
      "mountains": 9176,
      "animated": 9177,
      "verses": 9178,
      "Daydream": 9179,
      "harmon": 9180,
      "nominations": 9181,
      "positively": 9182,
      "thodon": 9183,
      "maintaining": 9184,
      "spoken": 9185,
      "civilians": 9186,
      "supervis": 9187,
      "Angelou": 9188,
      "evolved": 9189,
      "temperatures": 9190,
      "aptist": 9191,
      "roller": 9192,
      "credits": 9193,
      "melody": 9194,
      "flesh": 9195,
      "prisoners": 9196,
      "withdrawn": 9197,
      "Boys": 9198,
      "Survey": 9199,
      "pilots": 9200,
      "molecular": 9201,
      "solely": 9202,
      "logic": 9203,
      "wealthy": 9204,
      "Hawaiʻi": 9205,
      "recommend": 9206,
      "rushing": 9207,
      "Nightingale": 9208,
      "wickets": 9209,
      "sacrific": 9210,
      "Derffl": 9211,
      "loyd": 9212,
      "Hungarian": 9213,
      "Falls": 9214,
      "Blood": 9215,
      "Broadway": 9216,
      "Jeremy": 9217,
      "Wyoming": 9218,
      "vegetation": 9219,
      "leukemia": 9220,
      "gift": 9221,
      "Fernandez": 9222,
      "Tigers": 9223,
      "illiant": 9224,
      "Watson": 9225,
      "seventeen": 9226,
      "cousin": 9227,
      "Eccle": 9228,
      "Panzer": 9229,
      "Derfflinger": 9230,
      "78": 9231,
      "Astr": 9232,
      "Actor": 9233,
      "Bi": 9234,
      "Batter": 9235,
      "Bush": 9236,
      "Cricket": 9237,
      "Din": 9238,
      "ES": 9239,
      "Gael": 9240,
      "Hop": 9241,
      "Kody": 9242,
      "Knight": 9243,
      "Living": 9244,
      "Sel": 9245,
      "UC": 9246,
      "Vish": 9247,
      "XIII": 9248,
      "Zoo": 9249,
      "cof": 9250,
      "gud": 9251,
      "gaining": 9252,
      "khur": 9253,
      "lig": 9254,
      "insur": 9255,
      "eries": 9256,
      "stan": 9257,
      "aran": 9258,
      "arian": 9259,
      "assum": 9260,
      "itim": 9261,
      "icity": 9262,
      "heavier": 9263,
      "amaz": 9264,
      "champions": 9265,
      "deci": 9266,
      "olis": 9267,
      "una": 9268,
      "united": 9269,
      "cel": 9270,
      "platinum": 9271,
      "mod": 9272,
      "estyle": 9273,
      "permitted": 9274,
      "endar": 9275,
      "dual": 9276,
      "oren": 9277,
      "Stud": 9278,
      "achi": 9279,
      "timony": 9280,
      "compens": 9281,
      "autom": 9282,
      "ultan": 9283,
      "Antimony": 9284,
      "Almost": 9285,
      "tenance": 9286,
      "Author": 9287,
      "colog": 9288,
      "obst": 9289,
      "ifies": 9290,
      "oyle": 9291,
      "Leeds": 9292,
      "surprise": 9293,
      "identify": 9294,
      "Roths": 9295,
      "memor": 9296,
      "ideal": 9297,
      "coverage": 9298,
      "Maya": 9299,
      "legitim": 9300,
      "famili": 9301,
      "succession": 9302,
      "cyto": 9303,
      "restore": 9304,
      "increases": 9305,
      "handed": 9306,
      "reviewed": 9307,
      "Library": 9308,
      "Administ": 9309,
      "True": 9310,
      "Romania": 9311,
      "occurring": 9312,
      "1903": 9313,
      "anticip": 9314,
      "goods": 9315,
      "Design": 9316,
      "animation": 9317,
      "Poly": 9318,
      "1889": 9319,
      "measuring": 9320,
      "Arabs": 9321,
      "bowling": 9322,
      "clothes": 9323,
      "occasion": 9324,
      "cougars": 9325,
      "Years": 9326,
      "Bradstreet": 9327,
      "reinforced": 9328,
      "seriously": 9329,
      "Trees": 9330,
      "targets": 9331,
      "walking": 9332,
      "observation": 9333,
      "grandfather": 9334,
      "lifetime": 9335,
      "ramid": 9336,
      "Books": 9337,
      "parliamentary": 9338,
      "Sora": 9339,
      "beauty": 9340,
      "virtually": 9341,
      "ownership": 9342,
      "Wellington": 9343,
      "Jurchens": 9344,
      "revival": 9345,
      "Cyrus": 9346,
      "aboard": 9347,
      "pregnant": 9348,
      "relegated": 9349,
      "photographs": 9350,
      "diagnos": 9351,
      "Bedell": 9352,
      "Hampshire": 9353,
      "conscious": 9354,
      "interpreted": 9355,
      "oxygen": 9356,
      "Pakistan": 9357,
      "Gaelic": 9358,
      "Rothschild": 9359,
      "familiar": 9360,
      "03": 9361,
      "230": 9362,
      "Bio": 9363,
[...]
